/**
  ******************************************************************************
  * @file    network_data_params.c
  * @author  AST Embedded Analytics Research Platform
  * @date    Sun Jan 28 22:03:36 2024
  * @brief   AI Tool Automatic Code Generator for Embedded NN computing
  ******************************************************************************
  * Copyright (c) 2024 STMicroelectronics.
  * All rights reserved.
  *
  * This software is licensed under terms that can be found in the LICENSE file
  * in the root directory of this software component.
  * If no LICENSE file comes with this software, it is provided AS-IS.
  ******************************************************************************
  */

#include "network_data_params.h"


/**  Activations Section  ****************************************************/
ai_handle g_network_activations_table[1 + 2] = {
  AI_HANDLE_PTR(AI_MAGIC_MARKER),
  AI_HANDLE_PTR(NULL),
  AI_HANDLE_PTR(AI_MAGIC_MARKER),
};




/**  Weights Section  ********************************************************/
AI_ALIGNED(32)
const ai_u64 s_network_weights_array_u64[104256] = {
  0xbdf31c5dbdfc6553U, 0x3cf9a0533e1ba2b1U, 0xbd54ca393e09e4c0U, 0x3e0f1ff93e25618dU,
  0x3db6fede3e803f88U, 0x3e034aaa3dfde25aU, 0x3e0e4eb8bd88c668U, 0xbd9b7e5c3dadbb5cU,
  0x3e5d45913e8097c2U, 0xbded9bd13e5aad47U, 0x3db3ba303d4b86acU, 0x3a8f0d2e3e6049aeU,
  0xbdb233b83e3e9d36U, 0xbe681abfbe5e21d0U, 0xbe391026be54a21bU, 0xbe26b9b83d9d6da5U,
  0x3dba5519bceb9a82U, 0x3e55bc53bd844bd9U, 0xbd7f77fe3d269fcbU, 0xbd34617cbe03f7d7U,
  0x3e5d43ed3e71ee17U, 0x3cdcebaa3d3351f9U, 0x3b1fb23a3dde7bd1U, 0x3db8dbac3e62f32aU,
  0xbdc43e7d3e6bf785U, 0x3d46e7fd3d222a3aU, 0x3e3be2da3e6c5e9dU, 0xbe09f96c3ca3271aU,
  0x3e2a6e413e24329cU, 0xbdc8966a3e55fc16U, 0x3e5d8ad83d7e6eb3U, 0x3c7a17643d40d530U,
  0x3ccb3d8a3e2461f1U, 0x3da5acae3dc41b50U, 0x3e5832123e09df1cU, 0xbc5096893e6dc772U,
  0x3e2b2dfa3e8416abU, 0xbd4576763e320678U, 0x3cee921c3d8020f1U, 0x3e2e97eabd9dc54cU,
  0x3d59aae43cc47452U, 0xbdd06b84be0138b4U, 0x3d2bec313dc60166U, 0x3e415d333e6e409eU,
  0xbd28467dbc6bbde5U, 0x3e3a7a463d6943bdU, 0x3e1818ed3dafe00eU, 0xbbecb39e3e2242a7U,
  0x3d7c71c63e7b0a20U, 0x3da9688d3e87081fU, 0xbcd5effcbe0809c9U, 0x3e615fc23e06f01aU,
  0xbde6df12b9cc84c5U, 0x3d64c2adbc0ca47fU, 0xbd9fbf413d6c4b6fU, 0x3e3335653e156551U,
  0x3e1747703d20733fU, 0xbde331a53e29e4bdU, 0xbd8bd9233e5267c0U, 0x3df24be23e137dfeU,
  0xbccc95c13d01e605U, 0x3e4f4f5d3e18e08bU, 0x3db26ae23d686033U, 0x3e64aab23d7b51e3U,
  0x3e797254bd370f38U, 0x3d956f413e5939c1U, 0x3e67e750bd18ba9bU, 0x3e4a704e3c2d0fcaU,
  0x3e47cf8c3e17c7caU, 0x3def2bb73e8251d8U, 0x3e5f4e423de1fb71U, 0x3e1f6ff5bd82a28cU,
  0x3db58433bb695137U, 0x3e831a173dba5db9U, 0xbcd8ccec3d081b73U, 0x3d4a278ebc941da7U,
  0xbc2a2572bc332f90U, 0xbcfadb07bc2aa744U, 0x3d5434fa3e17a7f1U, 0xbd316cff3ddeff1aU,
  0x3baf3fc23d589a22U, 0x3d44e31d3ddcf37eU, 0x3d6f68393e04ac50U, 0x3e0640a83e21a7acU,
  0x3e2a1e973bb9a42cU, 0x3e0b19593cd4666eU, 0x3e2eb4ec3c2e814dU, 0x3e34e1a83dcbc6afU,
  0x3e08af293e15246aU, 0x3e28b30a3dc9e737U, 0x3e7b7df5bc96d9e4U, 0x3d9e6dd43d489488U,
  0x3d9b30f5bb43fd39U, 0xbe1996d3bd0191c0U, 0x3db3b3173a3f94daU, 0x3db588963d36760bU,
  0xbddcf3663e0ebcafU, 0x3d469aa8bd62612cU, 0xb998714a3d85e894U, 0xbe1d383d3e31b97aU,
  0x3e2487833c6137f0U, 0x3dfaa9053d7574baU, 0xbc2c74ce3e34835bU, 0x3cd9ffe23b84e70dU,
  0x3d322bdc3d68a6abU, 0x3ded33a13e1b8ef5U, 0x3de31a763dd09b1cU, 0x3c91e7e93e158844U,
  0xbd8d28fcbcf9f865U, 0xbcea4a2ebd0b9b62U, 0x3ca9774cbd7cbd52U, 0xbe5581e0bd62d55fU,
  0x3cb0138d3b810763U, 0xbc047cd43dc262c3U, 0xbe3146ebbd65bf55U, 0x3b31da413dc5898eU,
  0x3da9e92bbb5d6b20U, 0xbd821d633da599c9U, 0xbd91ea1a3cff9cc2U, 0x3def0d8cbd1210c5U,
  0xbe5701603ab1547aU, 0xbd9317b3bce710d6U, 0x3dce0020bcabb63fU, 0x3e021eeabd90dd8aU,
  0xbdc87f16bdebb1acU, 0xbbe52894bd8ea708U, 0xbe006364bd85e8ebU, 0xbd0267463d245dd1U,
  0xbdab5c113ca542ccU, 0xbe5f10a23d5a493aU, 0x3d976035bdb67564U, 0xbdb6a5da3dca3b9cU,
  0xbe26c181bd43b2d3U, 0xbc8fc9a4bc992745U, 0xbd9a4214bd81978fU, 0xbde201bd3caa5aedU,
  0xbd7cbee1bda146ecU, 0xbd65ba28bc8755edU, 0x3e4983e0bda0a1fbU, 0xbdc427403c3dbce9U,
  0x3c08dc523cb5ade9U, 0x3e03987cbd75f54fU, 0x3ca9c10dbd1772c9U, 0x3c46c8a13d9cf886U,
  0xbbafb27e3da779d4U, 0xbd86668a3dd55795U, 0xbda0c456bd4b69d5U, 0xbd344776bd97b222U,
  0xbad1bbd6bc3e1c96U, 0x3d33f8d2bd8fa224U, 0x3d8d359abd351353U, 0x3d9040403c079379U,
  0x3c8142f13dabdc9fU, 0xbd093bebbd474c6eU, 0x3d37e33c3d300dabU, 0x3d9150fa3daa3812U,
  0x3e3476703db4583dU, 0x3bed25a43dd26da6U, 0x3d4ed2e13d3b1b05U, 0x3e1f26713dbcb069U,
  0x3cc1cb823d35238eU, 0xbd0d7f7c3c622613U, 0x3e28ba30bcbf931fU, 0x3d9cf8213dbfab74U,
  0xbd8771a73d90bdf1U, 0x3d552e84bca986a5U, 0xbd8f5fc73b7943baU, 0xbd84d1c1bc27ec0fU,
  0xbd8be6ff3de7466aU, 0x3d2f6514bce14665U, 0xbbb46508bc9dfe1cU, 0xbc05a5eb3db74a00U,
  0x3d9c1a0ebd36a7eeU, 0x3d3d01c0bd618f65U, 0xbc82faa83dc94725U, 0x3de2bc343d8f2ddfU,
  0xbd5e69a6bd3e4cd6U, 0x3d28fe8c3da78bc0U, 0xbcbec60dbd443c57U, 0xbd1c9ce13d91b522U,
  0x3d47a8903d8ba430U, 0xbda74e80bd0a3eccU, 0x3c081e6e3d19e2acU, 0x3b1b36843d0237eeU,
  0xbd18f6de3cdb308bU, 0x3d2804283e151b7fU, 0xbd08dd38bd8435bdU, 0xbd08ca243d70b0a9U,
  0x3db4baff3de829c0U, 0xbce58630bcfca901U, 0x3db0dfa93dd54ef6U, 0x3db7a158bd120defU,
  0x3da9ec56bce34c82U, 0xbd45e0db3d9633a8U, 0xbc4a5c113ddc9abaU, 0x3e1bbad43d470e9cU,
  0xba47ca433d238fdbU, 0x3c357ad13da5e0ceU, 0xbc4283453e086495U, 0x3da6759f3d9e3874U,
  0x3aba81b9bd1b7134U, 0xbdaad00ebc3976e2U, 0xbd2fb8073c32a621U, 0x3dfd805c3dd40d15U,
  0x3dcdd5d1bbf5f2f4U, 0x3dd048273db8547bU, 0x3c919056bd393597U, 0xbce14a69bc1ba001U,
  0x3de99501bd45ead5U, 0x3bc8e7453c89ee3bU, 0x3cd6927f3ddc0048U, 0x3dda3ae2bd67f60aU,
  0x3d922b543da8f86aU, 0xbe2644d43de44f62U, 0x3c0941223de25af8U, 0xbd83e3b73e109affU,
  0xbe1659d93bcf8b8eU, 0x3d8815f9bb8f8d3bU, 0x3db7221e3d951e75U, 0xbdefa7dd3df07e0bU,
  0xbc38502fbd1eebecU, 0xbb4970bbbd7ba35aU, 0xbd8acb363da30ac5U, 0xbd0295ab3df342b1U,
  0x3d8365663daf1a60U, 0xbe08588ebd81e3f3U, 0x3d96420b3c8d44f8U, 0x3c30b488bd5fdc5fU,
  0x3e16bd773d2be65bU, 0x3e00b6cd3caccf88U, 0x3d7641573cbcdb24U, 0x3d67e0d6bc54767cU,
  0xbd5c2fc1bccc6171U, 0x3d5f8ee73d55115dU, 0x3d15603fbd536e99U, 0x3dc4ce373d1556eeU,
  0xbd0b3b233c26837bU, 0x3c98ad61bd6a89fcU, 0x3d000c2b3d93d756U, 0xbd59a6f83dd41ee0U,
  0x3def851d3dbee3e3U, 0x3d0555b0bd9e5f72U, 0xbd00e7023d299a78U, 0xbd11a8b03e1cb43fU,
  0x3b986aa33e0cdeffU, 0x3dfa41ec3e162121U, 0xbd1f49323dc9ef37U, 0x3e14a6dc3df8a9feU,
  0x3c6e680d3e25a889U, 0xbbbd8ef8bd4a6877U, 0xb9ba47283db8ad12U, 0x3e146749bd1dd34dU,
  0xbcfc5316bcfa830dU, 0x3da7d2b33da516d3U, 0x3e0bbdeebcf6d0a0U, 0x3c26c9ce3d6e85e1U,
  0x3d0d7982bd59ea57U, 0x3d4077103d8639dbU, 0xbe16bd923c9ae1bdU, 0x3dcda5eb3d96e30eU,
  0x3cea177e3dca4600U, 0xbdf89dec3d8c2e47U, 0x3d134c093dd2b8abU, 0x3df3ceccbd44fcd1U,
  0xbe06e30b3c969b57U, 0x3c8e666d3cbd4e27U, 0x3db33cde3d2a5cd3U, 0xbd2b4241bd804486U,
  0x3d314ff83dd13836U, 0x3e0a2daa3dd6f745U, 0xbcfc1a093d4d91caU, 0xbce7acde3d25415aU,
  0x3d9b7374bcac0f10U, 0xbe12d1ddbcd24f26U, 0xbd5c77263d3ac363U, 0xbca31e4a3ded074bU,
  0xbd8b1b33bc7ac8a5U, 0xbd05fb9abd48ff14U, 0x3cf1be723d9b44cfU, 0xbdb7eb073d184429U,
  0xbda55a59bd7a3da9U, 0xbce28bd43d4218b1U, 0xbe60d0c83db58c92U, 0xbdaec11b3cf9708eU,
  0x3e0967123d30195eU, 0xbe4bd2393ddb6e38U, 0xbc9e8d6e3d00c86cU, 0x3e01b1563e027bedU,
  0x3d88f2efbd26376cU, 0x3dd437f43c94bdb6U, 0x3e0d7aa23dd47422U, 0xbdae2cc9bd3e7e87U,
  0x3d4a0da5bc4a5b93U, 0x3d05ee013c63204aU, 0xbd8a7eb1bdadf7c7U, 0x3d0f8c4c3d470078U,
  0xbd5367f9bdb27429U, 0xbe3b882e3d9355f5U, 0xbd8458223d6b4134U, 0x3ddc5846bd48e0f5U,
  0xbe208819bb731d77U, 0x3d56742abc4f5540U, 0xbc5b102d3d5452e0U, 0xbddba7a2bdd585f5U,
  0xbcc332bc3d1a7e43U, 0x3bffc645bcd18372U, 0x3ca83a543dc5a937U, 0xbcd08169bc19d7adU,
  0xbc31efb93d6471dfU, 0x3da2a3623dd0baffU, 0x3da7435bbcb8f34eU, 0x3dc00f773d6b34eeU,
  0x3e78da783e0f2377U, 0x3dd53e323b85e169U, 0x3e13686e3cfe8b12U, 0x3e46a130bc2b4942U,
  0x3d216bbabdc6ce1eU, 0x3daaae40bd4ddbd4U, 0xbd6994f03cf3a8fcU, 0xbca8273abd351c36U,
  0xbdde6dcfbd24172bU, 0x3db69bbc3dd629a4U, 0x3d6407a63ddef516U, 0xbd623fc1bcc9c89aU,
  0x3d0fd8f53db72c53U, 0x3ddfa7a83e065969U, 0x3d672c6a3c026a72U, 0x3d79c7273dfe40cbU,
  0x3db6c49b3de61765U, 0x3cf95cd23dcb4dc8U, 0x3df3e11dbdce0d70U, 0xbc122d60bdb19573U,
  0x3df43f22bc8780e4U, 0x3cb692e13cec6afcU, 0xbc965d3d3df5cea2U, 0xbce8e3ce3d8e33e2U,
  0x3e0751d23c37ffd5U, 0x3daf509b3e16bf59U, 0x3e21ee4c3d040583U, 0x3db34ae43dcdf349U,
  0x3cd7af3f3debe7f5U, 0x3e0aa1683dd43c60U, 0x3ca58bd83d47f1caU, 0xbd6188bdbd341641U,
  0xbcdce3ecbdc6b3e6U, 0x3df8caa7bc1f99a8U, 0xbc076892bcf56902U, 0xbdd0e177bc281f2cU,
  0x3c887a1c3e1e5e9eU, 0x3b7a1acd3d101b3fU, 0x3cebfa323d378ad3U, 0x3d6566b9bcd56dfeU,
  0xbd0265703d437ffaU, 0x3dd2bc4d3d58570fU, 0xbc616c823c2caedcU, 0xbd0d43f43bd30fadU,
  0x3e0e2cbf3e01251dU, 0xbda370a3bd3bb0c7U, 0xbdca0961bcd514d6U, 0xbd5715eebd618718U,
  0x3d13b2cebdeb9e9aU, 0xbd8ce248bd81daacU, 0x3a53d385be1b0155U, 0x3d8074e03d6e3a8eU,
  0xbcdd8cbe3d2a17fbU, 0x3e0c72783d1be6dfU, 0x3de51d743cf5a8fbU, 0x3833e6073dc9a88bU,
  0xbcfd4e423de91a76U, 0x3d128f71bd402ce6U, 0x3da8af083dfc88fbU, 0x3cecd989bd1e05e9U,
  0x3e66df713d116bf7U, 0xbda2bfd63cea0c7bU, 0xbdae82c7bd81efddU, 0x3e56fdb23ced270fU,
  0x3c3f153ebce49ceeU, 0xbdf4a5f93d08cbfcU, 0x3e25c6d73d5072f1U, 0xbb9b33103c80babfU,
  0xbc900dfe3e1a0488U, 0x3e212a4e3db7eda2U, 0x3e19bcbf3ddcd72aU, 0x3cb33ce23e357dc7U,
  0x3e3a7d9c3d9bdd14U, 0xbd6cdc533cc4aa54U, 0xbd4ea2a83d1b3a7aU, 0x3e11740b3dba0c54U,
  0xbbb01548bda1124fU, 0x3cfe9489bc074801U, 0x3d66309f3b610d22U, 0xbdee83fb3d5fecc5U,
  0xbde086f1bd9fddfdU, 0x3dbcd3ddb99eacedU, 0x3dcaadb63d865727U, 0x3dfef2253e0fb2fcU,
  0x3bcfefa93cf2704eU, 0x3c4e37133de42e09U, 0x3e1548453e00d379U, 0x3e09f95a3dbd6b94U,
  0xbcb2de50bbbf39c9U, 0x3defc8e33d1f42a1U, 0x3de90bcebd840215U, 0xbd1a6c4abd9ce704U,
  0x3bae907ebdd8de99U, 0xbc005bffbd060c41U, 0x3c526c73bdb8037bU, 0xbd679386bc95ff2cU,
  0x3de9820f3e1bb1c9U, 0x3e273ebd3cc372fcU, 0xbc76e3e13d581a1aU, 0x3dd41c2abd17ad74U,
  0x3dd6a52b3db4f153U, 0x3da87e413e216e00U, 0x3d396517bcc725c0U, 0x3d4ad3f03d843f55U,
  0x3d12e7083de1c3e6U, 0x3e7ac75a3d922cd9U, 0x3dc43643bdb87e0aU, 0xbd42297fbae2197aU,
  0x3dd82ab9bd5309ddU, 0xbd706ed13d84c062U, 0x3d3e725a3c5ea720U, 0xbe157de83df05c26U,
  0x3de1c55b3e000e62U, 0x3e0906d13dcd7725U, 0xbe51c5d93d3ede81U, 0x3db4ddfcbcfbea56U,
  0x3e0588bd3e17986aU, 0xbe40f9263d005a30U, 0xbc80035a3d4e6bf4U, 0x3db8b7f8bc286c07U,
  0x3dc11d8d3db05e77U, 0x3da5e83fbc7ad73bU, 0x3e07aa6d3d9005a1U, 0x3da23237bd256c32U,
  0x3dea1556bc82f30eU, 0x3c6d5dddbcbb47f7U, 0xbdd8350dbcd72830U, 0xbd727ed1bc86696fU,
  0x3d9c2edd3dae8bbcU, 0xbe82c41f3cd00a53U, 0xbd58bc5d3df85abeU, 0xbd056ef2bcc4693dU,
  0xbe46ea6f3db1d377U, 0xbc8ac64d3d9df9a1U, 0x3d325bf6bd85dadaU, 0xbd7a56d8bd8ec71aU,
  0xbd6bc256bcc4e7deU, 0xbd9355b4bd6d5ef1U, 0x3d06e7e63ce6c12cU, 0x3d78d394bd2fe949U,
  0xbb85652e3d983c71U, 0x3e2ef056bd8ffdf2U, 0xbd4f6da0bdc510b1U, 0x3d04d7813d83dd9fU,
  0x3e10eb52bd9b0bb3U, 0xbd941f44bceafcd2U, 0xbc6b3dc23cca1f5cU, 0x3d88aa4ebd0408e6U,
  0xbcfc991ebdc0f11fU, 0xbd5d75e0bd6e9228U, 0x3d248c3abe062efcU, 0xbd8ca2d9bd33adc3U,
  0xbddf248d3cc867bdU, 0xbd4c9557be14e5c8U, 0x3c228fa2bce51c9cU, 0x3cdc1000bd73de6eU,
  0x3db31811bd05364eU, 0x3c4f27353dbcb21fU, 0x3d15a7053b80a924U, 0xbc8fd1f5bd448de0U,
  0xbd90a2173d8abb1fU, 0xbd19431a3cc116cdU, 0x3d4d63fd3dc9fe96U, 0xbd07e124bd37c78bU,
  0x3d7eb8f63d0c967aU, 0x3dd89b8dbdd09962U, 0x3ce44eccbd25aba9U, 0xbc3fc065bd155ebcU,
  0x3e70e922bdceb7c0U, 0xbc9acfe1bd7a3342U, 0xbe08440dbdec224cU, 0x3e8d0515bd7d7a73U,
  0xbd6d3878bc84296eU, 0x3dc75594bdce9556U, 0x3d6938fb3d58e420U, 0x3d93e4ddbcef0941U,
  0xbc704c163d8920f0U, 0x3e28850c3da65e31U, 0xbd5724c438add7b0U, 0x3cde5f853de37851U,
  0x3e8594383c93c55cU, 0xbcef179a3dfb17c9U, 0xbd0f10983e1c64b6U, 0x3e0765febd390b50U,
  0x3d1b35fcbc3d2e93U, 0xbd60c5f9bdae5757U, 0x3e5d7af6bdcc1bedU, 0xbd0997d53c5d69a0U,
  0x3d9266b8bdf3fba8U, 0xbd65aba3bd606584U, 0xbdacdb6f3c8965d4U, 0xbca72c0cbdc98a9bU,
  0x3da6f481ba37c3ccU, 0xbd0fbd4c3d88701dU, 0x3e005b833e1e78abU, 0x3dfc7b033e3c6174U,
  0x3d830e4b3e3e494bU, 0x3e2087373dc6b5ffU, 0x3e92ffff3e15c192U, 0x3c93d8323c012568U,
  0x3e1876df3d246e18U, 0x3df018a8bd6e8e00U, 0x3de3dcba3de3546bU, 0x3d86d4eabc69195fU,
  0x3e24be0fbd4717f1U, 0x3d3b71143c3525c0U, 0xbd0f673c3def9c01U, 0xbe1064c03d3fc0deU,
  0x3d31a30f3da72bdaU, 0xbb4427663e440271U, 0xbcc8a2053e3dec47U, 0x3da9524e3e141bd8U,
  0x3d9941dd3df5cd31U, 0x3e0aea133d8de355U, 0x3e219c693d21d799U, 0x3caea04e3e2bbfb9U,
  0x3d2013aa3df2e972U, 0xba70291cbbc78e4cU, 0x3d95e88c3c6c96adU, 0xbe0f39df3dff97ffU,
  0xbcd0a35e3e1a0b29U, 0xbd2c6daf3e2fc8d3U, 0xbda7e3683da11326U, 0xbd09b8163dca313eU,
  0x3dc2f166ba351d43U, 0xbd4a5404bcfd353bU, 0x3c218d7e3ca0b722U, 0x3e0445c93c7d687dU,
  0x3cda0ffdbd1763c2U, 0x3d9abfce3ddd4946U, 0x3d931a243b299e9dU, 0x3d27bf8d3d783602U,
  0x3da2224fbce8c937U, 0x3dcd4907bb66b10dU, 0xbe3b1eac3dd54eabU, 0xbac6885e3ca29b00U,
  0xbd1d1bdd3e1f9f22U, 0xbe3852d73d85726bU, 0x3d97f87f3c995b4bU, 0x3da6abf0bc3d6462U,
  0x3c01ff2a3cabe42bU, 0x3d6f40eb3ddea144U, 0x3c809625bd0298daU, 0xbe015a3c3da8f5a7U,
  0xbcb73931bd9bc8eeU, 0xbcaade08bd04b4b8U, 0xbd825f673cd888d6U, 0xbd328674bbae9f9bU,
  0x3d34018d3d32a3a9U, 0x3ca1573f3dfb5750U, 0xbc0edf47bd08c9e2U, 0x3e0d4ef43d917fb5U,
  0xbe056ed83dbb1986U, 0xbd81f6df3d9ec8ebU, 0x3d6ee4223dc03239U, 0xbdff47543c9dbc57U,
  0x3cad11fabcc614c2U, 0x3daf883abd63ec39U, 0x3c89da91bc50400cU, 0x3d887160bbc76efdU,
  0xbc831a8d3deba029U, 0x3d3d7a303e1e1399U, 0xbd2a0c343dc3b108U, 0x3ccfafcc3db60421U,
  0xbd73480e3d9cd490U, 0xbd21c03a3b47c2c9U, 0x3da8a8dcbd0feb5fU, 0xbda59f63bd894c05U,
  0x3ce6e121bd85f8f4U, 0x3dd2ba6f3db28f02U, 0xbe3a8973bbbdac02U, 0xbca5d94cbda74484U,
  0x3df9d9803da87603U, 0xbdedb61c3d4ab5abU, 0x3dc634e6bc5b1fcdU, 0xbc9ff69c3d8bab35U,
  0xbc858c023db57adbU, 0x3e1a9b593dee00b2U, 0x3e00c2923ca2f83cU, 0xbd71caf03cb187caU,
  0xbd757b71bd1b5053U, 0xbd7563fc3da1d674U, 0xbe170000bd9df054U, 0xbdae8a5d3dd8f170U,
  0x3da78a333c7b5617U, 0xbdfaa9383db0ad30U, 0x3d046f82bcb5191cU, 0x3bc7aeb9bc823c09U,
  0xbe08f6b33d9e938fU, 0xbd8d5343bc0708daU, 0x3dc700813b8a5a90U, 0xbdb6b4613ca913d2U,
  0xbdb2f1773d1f5fd3U, 0xbc039f3d3df88934U, 0xbcc091683e01b177U, 0xbd230eac3d9128c2U,
  0x3dc798e9bc002c43U, 0x3d1e74973d8ecf32U, 0x3cc2debbbd6ac01fU, 0xbca931a9bc22d7daU,
  0x3ded8219bc0380d0U, 0x3d830702bcde182eU, 0xbc5356d6bd4a9d5cU, 0xbc3aa1c9bcce3301U,
  0x3bf9a1103c897819U, 0xbd1b7220bdb53db3U, 0xbe1cabc7bb59521bU, 0x3da0c318b7fb8d80U,
  0x3b96bf5abd5a955cU, 0xbb3b9d883db1247aU, 0x3c6fb7d3bbb3d751U, 0x3d8e2216bd97c5d7U,
  0xbc5066263d83ee7cU, 0xbd91891dbd26275bU, 0x3dce7b8dbd6ae67fU, 0x3dfc86003a1b31d9U,
  0x3d562b49bd4a6e16U, 0x3dda35633d33ddc0U, 0xbc5ce7c23d2e5a1cU, 0xbd5a03323c7f1ff4U,
  0x3d1722a63d51e4f4U, 0xbe432a34bd6f9170U, 0x3d30f8503c3d2484U, 0xbd8549d9bd664803U,
  0xbe5452d1bd9cc3f0U, 0x3cd78d103c4532e7U, 0x3de08aa13d737332U, 0xbe330492bdabeb79U,
  0xbd5430303d3c4959U, 0x3db45f643dc695c2U, 0xbd85e2b13e035b64U, 0x3df2d6af3d87f742U,
  0x3c5a07d43da3ea7bU, 0x3e350daa3dea616cU, 0x3dce88a73e017959U, 0x3e09fc44bc24a933U,
  0xbd50aa253dccc3ddU, 0x3d7ccacd3dcdfd7cU, 0xbc5e2194bcbbff2eU, 0xbdfb7ecd3d09937dU,
  0xbb10a0183d9a5f49U, 0xbd65bd9fbdda66b8U, 0xbdff21c7bbb73770U, 0x3d4d7c923bcf90f4U,
  0x3ccffbf5bc5dc21dU, 0xbe3b4b203e0b36aaU, 0x3d9778803dfae001U, 0xbd0dfa2fbbec0cddU,
  0x3e14a85dbb1febabU, 0x3e09148d3dbcbb03U, 0x3e2344a63a80bcf2U, 0xbd99329bbd03079bU,
  0xbd233e72bcdd54eaU, 0x3d07a384bd578ec2U, 0xbaf6ca163baeb69bU, 0xbd8df408bd1a894fU,
  0xbc9057ee3c374651U, 0xbc8dbd79bb17ab57U, 0x3dd64765bd8281f0U, 0xbd28d01cbd64cc54U,
  0xbcd8fca83e0e55e6U, 0xbbcd2fce3e1159e0U, 0x3d8654ee3cf666b7U, 0xbe0a621fbc98d5deU,
  0xbd01e14e3cfdf46fU, 0x3dc9d26f3e171624U, 0x3d8d7a3dbcbc70b3U, 0xbd304a9b3e013690U,
  0x3d672c633e0540ccU, 0x3c360e893dea1d43U, 0x3bb7ab49bd1213e6U, 0x3dfbb7adbb5511f6U,
  0x3c8b17c13cc251ccU, 0xbd9f34acbd967122U, 0x3d8a6a13bdba3748U, 0xbe02002c3d2e7a7bU,
  0x3d7a94a3bd0115f2U, 0x3dd132503dd3c07fU, 0xbdf67e2e3dafa13eU, 0x3da120a83de68443U,
  0x3d45f104bd25bcc1U, 0x3d310ddf3b25c81cU, 0x3dc8ff113d1949dbU, 0xbc8f116f3db89d10U,
  0x3da61da2bd05dabdU, 0x3dedd9e33dd92c60U, 0x3d7d578f3d1cf66bU, 0x3df58927bd9761c5U,
  0x3d0c50fb3db9e4a6U, 0x3bbd1dfdbd153e61U, 0xbd2c2a6f3da8d57fU, 0x3d80cd27bd7209efU,
  0xbd5c87abbdabaf51U, 0xbd4c6a99bd416677U, 0x3d3f7fd13d93a698U, 0xbd9a44f5bd120efaU,
  0xbd904bac3dfec02eU, 0xbd29c3053e0c8c8fU, 0xbcfafba33e18770eU, 0x3e1077913cf5bf47U,
  0xbd78b9c93d9bb905U, 0x3ca15c473d9d12cdU, 0x3d79d75abc80c026U, 0x3dc67ea2bc5c6923U,
  0x3d5de0923c4bcf5fU, 0x3de9aecc3d611427U, 0xbd7a2434bd579271U, 0x3ddcd6333dadc097U,
  0xbdb1a4283c3b4994U, 0xbd68c9383a364c38U, 0xbdc6cce73d180a24U, 0xbdc934343dfc7ae8U,
  0xbc8da210bd4d03faU, 0xbc3451c43dbc76b5U, 0x3d1aac01bd84e04fU, 0xbd5b080d3c09de18U,
  0xbd438f9fbd807a6cU, 0x3ddb43a43c322623U, 0x3db6ac93bcf4ade8U, 0xbc0e2bf13dd5a4c1U,
  0x3de5363c3d1bfe4eU, 0x3d829da2bb690764U, 0xbd9e1ad9bda3097bU, 0x3e40c783bdbec8c2U,
  0xbcf8b70e3c467a10U, 0xbcde23f13cd03c81U, 0x3c5863ae3dba84ddU, 0x3e03ab323d984adbU,
  0x3dc18450bd200263U, 0x3cda19e43d130ef9U, 0x3cbb843d3dfc069bU, 0x3d8b4ff93d8f98ceU,
  0x3cd9e973bc9eda05U, 0xbd7a6130bd2707cdU, 0x3db5fb8f3d857314U, 0x3dd92a033d692ea6U,
  0x3e09fe4c3da13e2dU, 0xbd7338923d681494U, 0x3e2b8804bd564175U, 0x3ba32218bca63e59U,
  0x3d33ab143d8add97U, 0xbd5b690c3dc3b67eU, 0xbcc2c7883dc5ee4eU, 0x3cffad41bc307e4eU,
  0x3d0e5729bd94f8e9U, 0xbd8a92aa3db4b700U, 0x3d7e05873c1ac627U, 0x3dc69ca63d4d3e64U,
  0xbba0cf843d927405U, 0xbcacf84f3d748d96U, 0x3d6a478abccc6881U, 0x3e17b7df3e08972aU,
  0x3ca63ac5bc8dabc6U, 0x3c457b14bbae0637U, 0x3e03fabb3e06e895U, 0x3d9624933e2a6c39U,
  0xbdb487fd3d6b97f3U, 0x3da1796b3d710199U, 0x3cd1c5a03de6f987U, 0xbe1bd82f3d957a4dU,
  0xbd73694e3dd228edU, 0x3ce7bc313dd365dbU, 0xbe0cbbf53d93b70eU, 0x3da902543e07fb55U,
  0x3c85de50bcced335U, 0xbc9fff303e0311deU, 0xbc764f1b3d713aedU, 0x3d782ec33d6f1fe3U,
  0x3cecbacd3e19fc63U, 0x3c0ee0a13e15b01bU, 0x3de967b63db41a2dU, 0xbe0b4356bd2ecfcdU,
  0x3de00d80bda1b4d8U, 0xbdb0bd90bceae81aU, 0xbde3f1a9bbd92204U, 0x3c8fcd66bb8cc896U,
  0xbcbc647e3db37371U, 0xbe429eadbc588af5U, 0xbd8045a9bd223edfU, 0xbd5956103d9fcbbbU,
  0xbe49f76cbd629fa2U, 0xbc3ae09b3d0c93daU, 0x3c7bcec33dce97deU, 0xbd2c4f643deb6b56U,
  0x3dac0d12bc15ab50U, 0x3e0ed1933de6b8b2U, 0xbddf164a3d49e4bbU, 0x3dde557d3cb505bcU,
  0xbd92008e3b8f26aeU, 0xbda4c51abd24f0e9U, 0xbdbf8ac4bd365bebU, 0x3dd3002bbd01f401U,
  0xbd7f36a13d1abc8cU, 0x3d82bb39bd80e615U, 0xbb8756bf3ddf2649U, 0xbe36f3f83dea1278U,
  0x3d3af8c6bd8a8478U, 0x3c0ed4183b307513U, 0xbe427e093d2c9405U, 0x3c8d30623dd9ea89U,
  0x3d75c1913d46f9cbU, 0xbd79ce183d7755e2U, 0x3deb0729bd93de4cU, 0x3d12de5b3dd67b06U,
  0xbd0c1642bcb23a90U, 0x3dbce9ab3db1b877U, 0xbd93cc983d609302U, 0xbd3779283dface29U,
  0xbb89fb963bed3e51U, 0xbd919626bd960fffU, 0xbdcd0bbf3d37ef6aU, 0x3dbfaf303d64a91aU,
  0xbd2beeb93d8b5855U, 0xbd84df053d79f19cU, 0xbd687fa4bd878865U, 0xbd1bd63e3de6398fU,
  0xbcd556babc345e60U, 0x3dbc86523dd3b137U, 0xbc89d6063ce9f85aU, 0x3c515601bca19ceeU,
  0x3d432e673dbe8bffU, 0xbd9b89313c81c1fbU, 0xbdad55a9bd909798U, 0xbd43ae043cf491e9U,
  0xbd994a82bd8bb855U, 0x3d22e8043d83d4a8U, 0x3dfd70273d8c7aaeU, 0xbd8a10d83e018504U,
  0x3df835483e01cec5U, 0x3e021cde3e0bdff7U, 0x3dd330843dca7ad7U, 0x3d3bb793b987996fU,
  0xbcaeb3503c4c3d35U, 0x3e081cd63da258c0U, 0x3d2d4b03bbcb9e8bU, 0x3d77e568bd9998e7U,
  0x3df881c23dadf320U, 0xbd7e04be3c7c083cU, 0xbd829d80bd20fed1U, 0xbd25d56d3c0a3190U,
  0xbbfceceebc5011ceU, 0xbd0170383ddce331U, 0x3dfe20573dd3ddd8U, 0x3d7b9c9c3dc363f2U,
  0x3b857ff93b8d7644U, 0xbd48de4d3cc90847U, 0xbdb79c0d3ca91975U, 0x3cd65620bd275e1cU,
  0xbc9efd803de107f3U, 0xbd43cf6a3db08f23U, 0x3d2e6358bc8dc0c2U, 0x3dec3bfdbd3c967aU,
  0xbd4290e6bd8fa85cU, 0x3cbde69abd8962c0U, 0x3ada22983ddbaa74U, 0x3cd85fbe3da08367U,
  0x3d1e6e8f3da8015cU, 0xbb42fd22bd1470dfU, 0x3caf56f43d87c5c7U, 0x3db85ffe3d39efd9U,
  0x3d1a969f3d192d74U, 0xbd86a36abcf7e4f2U, 0x38692a593d9618feU, 0x3d3ea9eabd60157eU,
  0x3980924a3cf09e24U, 0x3d7ba224bc9c1daaU, 0x3d53ff43bd8ac336U, 0xbd225add3da8c3e4U,
  0xbd4510913da55b80U, 0xbd9e25acbd75e109U, 0x3c75a4c83d0dd5fdU, 0x3d92b5d43e053d85U,
  0xbc5ec42039aa9474U, 0xbdcddfe93d7dc87cU, 0xbd98f8e33da3288dU, 0x3c2eec3dbd895aecU,
  0xbd85303e3d7afc44U, 0xbd8b3aaa3dcbfde7U, 0x3c9b32a5bd9dd79cU, 0x3ddfaa933ccd85c1U,
  0x3d2e17373b66172aU, 0xbd0c711d3db43773U, 0xbd84772e3e0257daU, 0x3953c5ee3dd7855eU,
  0x3d9c5d473da9359cU, 0x3d94c965bd4429e8U, 0x3c7c1bd73c8a749aU, 0xbd8567febcd76b3eU,
  0xbe21f9f03dc13eabU, 0xbcf73d3b3db1cef3U, 0x3dbeb38abd73f05eU, 0x3d8adf673de3d754U,
  0x3d1962643ce4b39cU, 0x3de06b013cd8d706U, 0x3e0deb2d3d7d5d2eU, 0xbd4a6dfb3e0f091cU,
  0x3c35d8a23d2d09e1U, 0x3dde41323e0a66bdU, 0x3e1b24173cee83f0U, 0x3dc839733cfcc8ffU,
  0x3d0abff43d8a78ccU, 0x3b898b87bcb99116U, 0xbd6fc9d2bc981a93U, 0x3d16b37e3d62d294U,
  0xbd7e8ad43d785f0bU, 0x3d9ead773e06f726U, 0xbd9a014ebd737ae2U, 0xbb3bc8763ab9a622U,
  0x3dfa769fbcbcc937U, 0xbb29f4563df8a840U, 0xbd1547dc3d9b95b0U, 0x3d10c2613d8c2194U,
  0x3d150c6e3d821c5eU, 0x3e221e703dfcbc62U, 0x3dd3e2523e0944ecU, 0x3e02afd03d809fd9U,
  0xbd24d9433d4917a0U, 0x3e0fd2b33d8ec69dU, 0xbd1fc5df3e0a8e5fU, 0xbc76d1983d47c13dU,
  0x3dc2c8e23bfe7fc8U, 0xbe697d923d4d5eb5U, 0xbcc35c03bd2d8639U, 0x3d5c6b693c1c0b72U,
  0xbe82e5063d74f50aU, 0xbd324f813da4e0f0U, 0x3ddb36e0bd604b45U, 0xbe6e62463e11ee9aU,
  0xbd3a27cebc64dae9U, 0x3d97e7cf3dcbe61fU, 0xbdec74ecbd6b2236U, 0xbcd5bd943e11b6a4U,
  0x3dd82a623dd601a5U, 0x3d4f5f4c3da3e0d5U, 0x3dbeb81f3d0145aaU, 0x3e09fe2abcbec3dfU,
  0xbcea2a1bbd5bf79cU, 0x3d571d85bdbb8ce4U, 0xbde6ccbb3d3e988cU, 0xbde4d73cbd93b579U,
  0x3c2918b4bd77d9c7U, 0xbc8a6c4bbd60900dU, 0xbe7bda463dd20480U, 0xbda44ad8bc444977U,
  0x3df0191bbcd66b39U, 0xbe4a0f9e3dbe3d6bU, 0xbc8d33693c6fc076U, 0x3d79c2da3d252907U,
  0x3d61367bbcc80938U, 0xbd3475f23dd5771cU, 0xbd89310fbd5ff5bfU, 0x3dd641dcbde2bc70U,
  0xbdbac6eb3dad34bcU, 0xbd37c35e3cbd2e78U, 0xbd5c54f33d6c8ea3U, 0x3dbf71ac3cb66c36U,
  0xbd678c1c3cacc60aU, 0xbe3e26b0bd959d2bU, 0xbdc8d50abd7d7d8cU, 0x3cbc6db43d945b7aU,
  0xbd8aa5bd3d2e7d46U, 0x3da3e981bcedbef2U, 0xbd9f86763d9b1d82U, 0x3d33f130bd6f4e80U,
  0x3db9f93dbda93deaU, 0xbda01a423d04ff51U, 0x3ce75170be084249U, 0x3d4e612fbda792aeU,
  0xbdef32c4bda75909U, 0xbcb1978bbd8f35d9U, 0xbd8757133c8f84f5U, 0xbe162987be09639aU,
  0x3dd79acdbd5d1225U, 0x3d154086be0bfc9fU, 0xbdd1fff8bd9f57d6U, 0x3d914bc03cbd0649U,
  0xbcfa23d3bd815a5cU, 0xbe08f092bdda7d41U, 0x3e3fd39cbd8a635bU, 0xbcb699f4bcf848e0U,
  0xbd768521bca90678U, 0x3e39d3bfbcac99b9U, 0x3d1b7357bdd3c9faU, 0xbddc39923cbab0b1U,
  0x3d5af8123d152575U, 0xbd9cdc99bdecf1baU, 0x3d2357e1bda3d3efU, 0x3de22f6c3d725409U,
  0x3dd85480bdb50609U, 0xbc71211abd6515a8U, 0x3db108b5bd7bb97cU, 0x3dfee3223d68479bU,
  0x3da87f3c3be29ff5U, 0x3dc65775bda7987dU, 0x3c720f55bdaa9d47U, 0xbda8c69a3b2ef438U,
  0x3e423e08bdba6664U, 0x3c86f8fe3d813d00U, 0xbdaaedc23d5dfe20U, 0x3e524fb9bdce2c21U,
  0x3b0085e0bdc42dcdU, 0x3c9ea9233c0027edU, 0x3e3045413e092c91U, 0x3d1470f53c7243fdU,
  0xbd9a8aee3decef79U, 0x3e4adbd73e16e555U, 0x3e1253df3d7db294U, 0x3d7005723b936fc1U,
  0x3e55cce13dde04d5U, 0x3dd777763db1132fU, 0xbcfbcdec3d032012U, 0x3e3524393cf1bf0eU,
  0x3c965981bdb71b90U, 0x3dc9cef83cc2ad6cU, 0x3e0fbd99bc8e393bU, 0x3d99a34e3d8f276dU,
  0x3dcf89713e074f46U, 0x3e4feabdba72b6a3U, 0x3da244f73e236e78U, 0xbc6379f8bc730119U,
  0x3df99b323e0d9d1cU, 0xbcb4cbd2bcf89528U, 0x3df6f64d3dae565aU, 0x3e05aa40bd5e773aU,
  0xbd720b323d922f3aU, 0x3dd32c41bcb175d3U, 0x3d98b17cbc32423dU, 0x3e07caa83d9e2374U,
  0xbd94516f3d69cf44U, 0x3d26533abd11c421U, 0xbc0935a9bd48e65cU, 0x3cfc4cc43de03937U,
  0xbb7d9a0c3dba0c08U, 0x3d92d88a3e154079U, 0x3da6b8983d3e15f1U, 0x3e41c7bd3d86ea35U,
  0x3d8d64183e28814cU, 0x3e2f3c443d7beeb7U, 0x3daff8183d0beaaaU, 0x3d1bf1a5bd235a76U,
  0x3d7691b13baa6b87U, 0x3db323de3d7a5694U, 0x3ded47b73dc5539eU, 0x3dc9acb13dcc23acU,
  0x3d8cd8883d65288eU, 0x3dcbf13f3db1632bU, 0x3ce1ecf13d558ff2U, 0x3d444b4abc9eec2bU,
  0x3d0c3235bc0f1ba8U, 0x3ce3d319bd98a8daU, 0x3d0d872cbb3ba58bU, 0xbca91a46be04ecadU,
  0xbdc53958bda8888fU, 0x3dbf69e4bd11a44cU, 0xbd698b223bfff888U, 0xbcc5d9c3bd46ed7dU,
  0x3e3c4b1d3e58b9ccU, 0x3c5bf41d3dee7693U, 0x3e4ec6d83d88bffeU, 0x3e2e33ac3dad4655U,
  0x3e1765ad3e017371U, 0x3e122a0e3cb0b00bU, 0x3e15a547bcbf5e02U, 0x3da3e2603d8415c6U,
  0x3b72d9553d6f7681U, 0x3e0329c3bde3ed01U, 0xbe058539bdb0eaa6U, 0xbd3e5ba7bd2c7c0eU,
  0x3dc21408be1811e4U, 0x3d4194b93c23e1a1U, 0xbe0838bdbc52ba98U, 0x3dccc0af3d0ea0caU,
  0x3ca189a43e56d0dbU, 0x3d88017d3dedaf42U, 0x3e85db64bbd2c57dU, 0x3e196fe43d46b2b1U,
  0x3d1b8c533dab7ea8U, 0x3e56f0a3bd8d1132U, 0xbdaeca0cbd90beb8U, 0xbda7c4afbd09a3c9U,
  0x3ce8d604be2f1b92U, 0x3ca3ea2f3d104aecU, 0xbe13e604bd7a6202U, 0xbb1c56babe1a157bU,
  0xbcef0f0abdcd3267U, 0xbd02bce1bcad9aa6U, 0x3d4582853d0717cdU, 0x3c6933323d899426U,
  0x3d751c203e3255e9U, 0x3df6f0903cdd5ca0U, 0x3deab4b4bc4c6b4eU, 0xbb848707bd8ddd93U,
  0x3e21443bbda9d13bU, 0xbc9b502cbd19adb7U, 0x3d8e3396bd9594eaU, 0x3d7062db3b41946aU,
  0xbe012772bc18be40U, 0xbe145067bdb5b3e5U, 0x3e22ad2ebe0adc9cU, 0xbc7ae699bcdf3fb7U,
  0xbd317eebbdfcf5dbU, 0x3d843f473b4c68c0U, 0x3cbaf57f3de4a16eU, 0x3e2485673d9603a2U,
  0x3e58648a3b2c2be1U, 0x3de4047b3db5b5ddU, 0x3e149f5b3cb4beebU, 0x3e860d5e3db422a0U,
  0x3bfe66d7bd12f783U, 0x3cc0a5ebbdb9ba73U, 0x3e287c31bda9188eU, 0xbdce65aabdc340b2U,
  0x3d897bb6be02012dU, 0x3e81294b3cd3e360U, 0x3dcd9e1b3ca0fc08U, 0xbd4808a73dd4d8a1U,
  0x3e1a44853d60de90U, 0x3cf2d282bda99624U, 0x3c540284bd94e8a4U, 0xbd2d1978bd9b612eU,
  0x3b707872bca340d1U, 0xbdb30bbb3d2f9367U, 0x3af09a3b3d156a53U, 0x3c9793ec3d964885U,
  0xbd74642d3d1261daU, 0x3e3153e63dd137a7U, 0x3bf4daef3c70b798U, 0x3d2140853d55d228U,
  0x3e7790dc3e14cbc5U, 0x3df0b9513dae8d63U, 0x3e221c223d9a00e3U, 0xbca03ce0bd80375dU,
  0x3d84d0233dcc73b0U, 0x3dc36a5ebdb23926U, 0xbe03cbdabdb47057U, 0x3d6f12b3bcae4a41U,
  0x3d9e4c3c3dbc6865U, 0xbe221a2a3d8386f1U, 0x3db57c843de9ad37U, 0xbd01562c3e00d262U,
  0xbcfc64cb3e2eec7cU, 0xbb21db793e2ac778U, 0x3dce5c663e3b6eedU, 0x3db47ad03e0724c0U,
  0x3db6badf3dbca28eU, 0x3dee12f53e0cda03U, 0x3e0d30bd3d5ea86eU, 0x3ddd7055bd7a6c91U,
  0x3d5a61fe3d51d4f3U, 0xbd4502e5bdcc89f2U, 0x3d5fe39abd663b10U, 0x3da3642abd1a701cU,
  0xbde56629bc3bd92eU, 0x3d8dff37bd2a5babU, 0x3d8b8664bb57b54eU, 0xbdd96bdb3c74780bU,
  0x3bfe9d823dfc4272U, 0x3b0cf7733cb50430U, 0xbd95f06e3ac5b46bU, 0xbc90c8c03e173855U,
  0x3bbc25153d06e7a1U, 0xbc1e3945bd37fd25U, 0x3d1c8ccebc9c2fd0U, 0x3a8e5674bcb1a243U,
  0x3d191634bcd1da66U, 0x3db7c247bd674dacU, 0x3d35395b3d94ccf8U, 0xbd0842493cb03760U,
  0xbd4578f63da096f1U, 0x3da79eac3de16ba8U, 0xbe0c130d3db15ca8U, 0xbabba6eabc4a7eacU,
  0x3db0fc303d5833deU, 0xbe1f9f7bbd015953U, 0x3cc62b9fbcf112d7U, 0x3d05cd0a3d9c6317U,
  0x3dcf5807bd7df724U, 0x3cfa8354bd33d298U, 0x3e08dc503dbba4e6U, 0x3dcd9e5cbd886455U,
  0x3db24cf53daceb77U, 0x3dff9ca03e0bbbecU, 0x3e0634063debce90U, 0x3ddeae3bbb961be2U,
  0x3cbe24263e051864U, 0xbc723f01bd84357aU, 0xbd3d8cab3d3728e7U, 0xbd8cfe40bd22a576U,
  0xbd81e9d13d3c6c8eU, 0xbdcee7ce3d6dd63eU, 0xbd2a96cf3da88fb0U, 0xbda985f13d0d42a6U,
  0xbd54af483d4ad2b1U, 0xbde4e413bd599fe5U, 0x3d8ff3ec3d75790cU, 0x3dd0c6f6bc955ed9U,
  0x3db7298a3d49fae8U, 0x3d71e4d2bd584065U, 0x3c4c1d1ebcde76b2U, 0x3de9ab723d62968eU,
  0x3ccc87813d2f6b61U, 0x3cdf0ce4bd19c34aU, 0x3bacee143e094562U, 0xbdb1d86d3dc48ed5U,
  0x3def2066bbca9774U, 0x3dc73ee1bd8027e6U, 0xbd349c76bcfb700dU, 0x3d5a7092bdae500bU,
  0x3daaf51a3d2b8b6aU, 0xbb92f1ec3dbc12d9U, 0xbc94d23e3dcd1964U, 0xbdae41403da34619U,
  0x3d5125c23deb4a3aU, 0x3de98826bd2cefe4U, 0x3d44d69a3cab9b59U, 0xbd822e7d3cde1387U,
  0xbbac456f3aa9ef39U, 0x3d90ff6d3d9f4458U, 0xbdb9070f3b4b2456U, 0xbc27893fbd6217a8U,
  0x3dad58623c2f664aU, 0x3ba3582dbcb301d1U, 0x3ca5b1aa3cfe8f05U, 0xbdd6d7783c590d77U,
  0xbdf54701bd0e67d0U, 0xbd7d2fdbbd5c4744U, 0x3c79bfab3db76686U, 0xbe022e583e0aa605U,
  0x3db886c43d613427U, 0xbd397b883e008853U, 0xbc0dbc08bd5c9025U, 0x3df50055bd7be7f5U,
  0x3d1b42633da3353dU, 0x3d88ba613dcc0765U, 0x3d4d87223dd73037U, 0xbce00479bd1e3916U,
  0x3d249cb73d9cd892U, 0x3dd528ad3cf43c97U, 0x3c810e4abdc17b44U, 0xbdb8e5083d2a3affU,
  0x3df72a093dab784aU, 0xbd6f0ccf3ddef6e4U, 0xbcf1440e3d0ac581U, 0x3e13da433de39af0U,
  0xbcf283523dd3e9a7U, 0x3e2869843cdee268U, 0x3d52d135bc4752b3U, 0x3df243943c80014aU,
  0x3e0bd306bd7bd23eU, 0xbdadccf33dde6888U, 0x3ced0aa03d2d2c74U, 0x3e5c921ebbb17e63U,
  0x3d20dbcf3de4e9deU, 0x3db464b63de8de2cU, 0xbccadeb23d103755U, 0x3cd83a743c634e52U,
  0x3d0d3e5f3dd78552U, 0xbd94b5cb3e12b0deU, 0x3db1d2ae3dd72deeU, 0xbcd7a59f3e22b557U,
  0x3e0780eb3dd7778eU, 0x3bca5e1c3de01d32U, 0xbd58924ebd4b4cefU, 0x3d270d4a3b980fa0U,
  0x3d8e1277bdb02154U, 0x3d527e633d2e9d07U, 0x3c14bacd3c08cca4U, 0x3c1cf2223b8858b1U,
  0x3cb9b8c63c0458c8U, 0x3b7d2886bb2c3ceeU, 0x3b52edf53c27e0e5U, 0xbaeffbbc3c247c48U,
  0x3d6e1ec03cd4c23cU, 0x3c1db3f63c00e90dU, 0x3cf2a13ebd544b7fU, 0xbc44137ebd465113U,
  0xbc916e6b3c619f49U, 0xbd1295283cf50785U, 0xbb63a79c3d4d08caU, 0xbd0737343d42732eU,
  0xb9b554233c82b04bU, 0xbd04f50abd819972U, 0x3c467f2bbccba0a9U, 0x3d11e5a1bd4d236fU,
  0xbd77de0abc6765faU, 0x3cb6f88cbb41c47eU, 0xbd5648b63d1bd327U, 0xbd107fd13d2186edU,
  0x3c399098bc3e66a1U, 0x3a55a670bca8ff52U, 0xbd25bdf2bd8043a4U, 0xbd751afabb4467d7U,
  0x3ca6320fbc142b94U, 0xbc8170dd3adb875aU, 0x3d46746abd5eacd8U, 0xbbc94832bc6c9115U,
  0x3c8c4024bd7288b5U, 0x3d1674463cb759d9U, 0xbbf8dcab3d22967aU, 0xbb353702bc625017U,
  0x3c4d37343c308b9bU, 0xbc8c913f3cde86cdU, 0x3c1b0643bccd9bbbU, 0xbc3d2b6ebc18b997U,
  0xbcd463d03bfe2757U, 0x3bf375d4bd360016U, 0x3d49160fbd5b3589U, 0x3c40c5b23d30453fU,
  0xbd1770d73c87382fU, 0x3c2654ad3c378a5aU, 0xbc55a7f1bceaa23cU, 0xbd5a23283d51a3dfU,
  0x3c47ea2a3c5a58d3U, 0x3c90e04bbd0b27afU, 0x3ca9e8e9bd3677abU, 0xbc8bf081bcd55b11U,
  0x3cb677babd45238eU, 0xbc99e9a6bbd28e43U, 0x3c076f99bd455b84U, 0x3cb2774dbd7e7427U,
  0xbce14ce63d58b92eU, 0xbd562eddbc64ae6fU, 0x3c8835973b927694U, 0x3d181973bbb71bc9U,
  0xbd497ec83c791f67U, 0x3d4b2fe4bc4eebb6U, 0x3d2279563b9a7f8aU, 0x3c119f82bcf76ec8U,
  0xbd617fdc3cb00881U, 0x3d40df2ebd7f44fbU, 0xbd605f31bbb34604U, 0x3d2d04cfbd218660U,
  0x3d621718bd1da377U, 0x3d142f37bd800df9U, 0x3ca4a39b3c7025d4U, 0x3d4bafc2bd2b2925U,
  0xbc2dcd793c6406b4U, 0xbc7eac183d1d5ec1U, 0x3d0fb5c5bd29a79dU, 0xbd73c4fabd20c481U,
  0xbc5eb2d6b9ff99fbU, 0xbb836d09bcead622U, 0xbd6223413c783428U, 0x3d509ae2bc96b723U,
  0xbbe43bd43c12c953U, 0xbcd1c4883d1e6cf5U, 0xbc00e067bd5d0c71U, 0xbd41409f3c8e869bU,
  0x3cca04e23b1dc370U, 0xbcda0e1dbc19dd3eU, 0xbbc25a293d375958U, 0xbd3ad182bb7b60c7U,
  0xbd414eadbd0ff356U, 0xbd164259bccde06cU, 0x3caae3bdbd64e126U, 0x3d4bdff1bd57ab07U,
  0x3c387552bd5a278fU, 0x3d34f31fbcd8c850U, 0x3b7ba243bd123881U, 0xbd0695c0bc4c0fb1U,
  0x3bced4bfbd3a8d66U, 0x3c5a338e3ceaa6c7U, 0xbcdd793d3cbcb56aU, 0x3d3a9543bd599f6eU,
  0xbcc7e8573c754b86U, 0x3cd0d3083d2cd178U, 0x3bb8b7813bdbf15dU, 0xbcca4f113ca02574U,
  0xbafd7ea3bc835e75U, 0xbcbbb52d3c623051U, 0x3d101dfdbd500444U, 0x3bc9369b3bb25877U,
  0xbd2e7726bc882fb2U, 0xbd626312bc0a291cU, 0xbb94b9cf3cc4fc14U, 0x3a3e23bdbcb7ab56U,
  0x3d13cc8cbd503a05U, 0xbb845a4138648b4bU, 0x3c2322a8bd131b89U, 0x3cf6606abd2ac9b1U,
  0x3c12fabbbc8200c0U, 0xbd0d067c3cf1670cU, 0xbd800a1f3cd8f9dfU, 0xbd0564f4bd36b63fU,
  0x3c4ea19fbd15751eU, 0xbd62e5c9bc964f9bU, 0xbce83d563c50caf9U, 0x3c5931923cc7994cU,
  0x3d7584d2bba2d96bU, 0x3c7753c6bca6b9c8U, 0xba24d561bc6a6c56U, 0xbd261b8f3cee3d5fU,
  0xbd4b97ed3c855b2fU, 0xbd221ad33d34ecf2U, 0x3c34e10d3d150fe2U, 0xbc96eaea3d0629e5U,
  0xbd483bd83cb954d2U, 0xbd53a58e3b9c90fdU, 0xbca80ae43c97df59U, 0x3d2fb5be3cfc0f8aU,
  0x3d4de36e3d442d88U, 0x3bde688bbc81e108U, 0x3d46ec9abc8756e0U, 0xbd565626bd0481faU,
  0xbcf922073cea6b3aU, 0xbd6b57b5bd441191U, 0x3cb3486cbccb110cU, 0x3cab72b03ce5574cU,
  0xbd12f83e3c9eb93bU, 0x3ccd218bbb437a2cU, 0xbd2e6ec73cde8b67U, 0x3bd91d32bd184820U,
  0x3b4e744dbbc691f1U, 0x3ba84e733cf4d4cfU, 0xbc734340bcaf5203U, 0xbd6639e6bc009985U,
  0xbd3e3059bcd45c08U, 0x3d24a01dbc76beb8U, 0x3c8f60e0bceb67f1U, 0xbd2b1d42bc6c89ebU,
  0xbd53e78bbd4b6873U, 0xbc0630373d10e3f9U, 0xbd2aca9e3c4267aeU, 0x3d49625f3d142131U,
  0x3cc1af09bd499f75U, 0xbc83cea1bc325ec7U, 0xbd820bf43b92bd31U, 0xbb7222b6bcaaadacU,
  0xbd0bd6a53d369288U, 0xbc9d04bdbcccb81dU, 0x3b0d965ebd51f066U, 0xbd0b4003bd24e30eU,
  0x3d472d4abce37605U, 0x3c3a69653d14378eU, 0xbb81e5143cd0cf6fU, 0xbd6aa6b03c30f5acU,
  0x3cfd5c20bae616afU, 0xbd63a5373d1fb0d6U, 0x3c85d3ccbd6fcf77U, 0xbd1a967e3d533bb1U,
  0x3947c998bd3700e2U, 0xbd5a118ebd0185a8U, 0xbc5a7ab7bb6ee1beU, 0xbd18c4df3b59a8e7U,
  0xbb8263f2bc5bfd7fU, 0xbd67963b3c496b72U, 0xbb7205d8bcc1b9e4U, 0xbc25f2f63d5034efU,
  0x3c848aa53d6a88c0U, 0x3ca91882bd1fd01bU, 0x3d52a171bd4b36f4U, 0x3cd44fc13d121be7U,
  0xbc42a37dbd564e40U, 0x3d4c4157bd6f0866U, 0x3c07dff33ba33f1eU, 0x3d1b01303d4871eaU,
  0xbd534413bc6faf44U, 0xbd6c0fbe39cb66f9U, 0x3d0e02ce3c86e212U, 0xbd056ca53cb7c6b2U,
  0x3d1b6d42bd644cd4U, 0xbcc00c5fbd51af64U, 0x3bcf67903ab46e2eU, 0x3d0dbb933cd35922U,
  0xbcd07328bbb36e04U, 0xbc9a1d32bd670dabU, 0xbcfaf3e8bc40314aU, 0xbd6831d83d04417cU,
  0xbcbe82f43bbd8fbdU, 0xbc98e4843d2f00c4U, 0x3c5805fcbd2498aaU, 0xbd28cd59bc960e9eU,
  0x3bb582953d1f58acU, 0xbd66499fbd5c01ffU, 0xbd6dfd9abd761460U, 0xbc17ddd33b70f7afU,
  0x3ca3b9433cf0af85U, 0x3d521d4dbc14fdc1U, 0xbd5b9bfb3d0a1967U, 0x3d0895c6bd7e32b8U,
  0xbd3652a8bd6cc097U, 0xbd5a5b6e3d3bbf43U, 0x3d2da226bb32c45eU, 0xbca19b5f3d28a879U,
  0x3c567939bd2aba4bU, 0xbcac7f86bba9e1c8U, 0xbd4cc1c8bcb2cc02U, 0xbcb53d383c9a53b6U,
  0xbc0c6a54bd3b876fU, 0xbc3ee17abc6f49bcU, 0xbd6a6b82bccfcd54U, 0x3d4711f33c640dd6U,
  0x3d3b4eaa37b92e0eU, 0xbd29fa273d50c9d7U, 0xbd5618ca3d0a7c19U, 0xbd4580763d199337U,
  0x3d2138babcbd671fU, 0xbcbe642b3d580b1fU, 0x3cc7cb53bb8bf7a6U, 0x3d4d4525bb6b1e00U,
  0x3cd17bfebc03edb7U, 0xbce015033c9a6187U, 0xbb4d3fabbd519569U, 0x3bfa45393cb77ddbU,
  0xbd52f98cbc050269U, 0x3d3d3e583d3e8cc8U, 0xbc629570bcbca8ddU, 0x3c9b815dbca1ff18U,
  0xbc5e97a6bd75a3ebU, 0x3d2945ffbd1f1fcaU, 0xbb37bfae3c402e4bU, 0x3c2789533cc52b4aU,
  0x3cb90ba13bac3abfU, 0xbc89c7bf3a79a970U, 0x3d2eb1a73d42ce35U, 0x3d545a55bd08c530U,
  0x3d1a85023d361855U, 0x3d35e27bbc991f90U, 0x3c0d2d7cbb9f3ba1U, 0x3cbd665abd6a7609U,
  0xbd4f6afb3d222dceU, 0xbd72d83f3a06c7a8U, 0xbd58c5243d131b9bU, 0x3d46225bbd1d729eU,
  0xbbe0be67bc67cc5fU, 0x3c121d88bcddd9bbU, 0x3b6e11df3be44b07U, 0x3d4b05523d2b6edeU,
  0xbcc5f18e3d11ed45U, 0xbccca291bd836b8eU, 0x3bb0ceb33c12ddd4U, 0x3c763c77bcc487eeU,
  0xbcaa56cbbd189e23U, 0xbd14be62bd020c41U, 0x3cf093a4bd812e96U, 0xbd3b6c723cbff27cU,
  0x3c22ca2f39fa9680U, 0xbd1b034f3d1f4d97U, 0x3d270c2f3c51a055U, 0xbc449a7c3ab8e6a8U,
  0xbd430c27bcf38edaU, 0xbc84b8ae3cb76f5cU, 0xbd2a92ee3c87779cU, 0x3c12ecb43c1cd3fcU,
  0xbd021b9e3d54e7c5U, 0xbd5a406ebc8dbfefU, 0x3c80404abce487eeU, 0xbcd2333abcae6b89U,
  0x3d7b7bd23d3d52f9U, 0x3d4c6b213ca9d494U, 0xbb9928b2bd29a05cU, 0xbd3a51403d3579e4U,
  0x3c6b38373d4ca54eU, 0x3d0126ed3d04bc22U, 0xbc9bf428bc9480caU, 0x3d237f03bc84138dU,
  0xbccab470bd771ba8U, 0xbbdcfaabbd129271U, 0xbd3f9e2cbd25dcb2U, 0x3ba663633ca3ab10U,
  0x3ca325a73ad41236U, 0x3cd832873cef2b61U, 0xbcea9885bd28425aU, 0x3d5b5085bd2f4b78U,
  0xbbe6f529bc64115bU, 0xbd181a5abcd78c6bU, 0x3d11679ebce80a7cU, 0xbd739fa83b0814c3U,
  0xbd49c2a3bc96ef99U, 0x3d440bb1bb0f9fbaU, 0x3ce4cf8abc48b23fU, 0x3cc32023bd51924eU,
  0x3d00a47a3be44e3eU, 0xbd3d7b71bd61c566U, 0xbd05f8febcfa0f93U, 0x3c288a053d5668d1U,
  0xbcf3f7f6bd15676bU, 0xbd0a02f2bd6966ccU, 0xbc9841033d08c202U, 0xbcd1d8633d44660fU,
  0xbcde5e843c9c0162U, 0x3ca9c49a3c3df76bU, 0x3ae30637bd56e8bbU, 0xbc8f4e1abcc12084U,
  0xbd21d715bc1bde36U, 0xbd45de4b3d20c40dU, 0xbbccc2c83d59a632U, 0x3cd050083c45a7e7U,
  0x3cf672e1bc798573U, 0xbcba6546bd2291f9U, 0xbd739f90bd2c9279U, 0xbc58c6983a8e9fdbU,
  0x3d3c9bb83d5b47bdU, 0x3d407851bc90923fU, 0x3cf12fbbbbe6f6e0U, 0xbc57fc7b3c05c7caU,
  0xbd1a2f623d1c80c1U, 0x3c6d3581bd43fa8fU, 0x3b961469bd2cdb78U, 0x3abf25a9bd807d63U,
  0xbbf2e30f3cdbf5feU, 0xbd33117ebccc5c80U, 0xbd36aecfbc9dc490U, 0xbb861784bd0acda2U,
  0x3bde8f523d4bff89U, 0x3d51deecbcade185U, 0xbd29b698bb0c2abaU, 0xbd4fb14dbc828511U,
  0x3ce11f17bd6db319U, 0x3ccf3d5c3d42322dU, 0xbd0b4606bd481de4U, 0x3c96b76abc0cc75aU,
  0x3d2ee6bf3c464878U, 0x3b783cc0bcf7c6a3U, 0x3ccf1f143d50cad6U, 0x3bca4e1fbd04ec40U,
  0x3ca53e65bab91cb0U, 0x3c12bcd5388fc429U, 0xbd43b8e43c750393U, 0x3c97b972bc54d3a4U,
  0xbd65c985bd63d6e2U, 0xbcd1b4e0bd6cb4f8U, 0xba967055bcc227a3U, 0xbd7300fb3c446421U,
  0xbc93bafbbd640e71U, 0xbd75f5103bcf5aafU, 0xbc9ed858bcc1a5f9U, 0xbbd22bc1bc9ab3bfU,
  0xbc7f2729bb3098f3U, 0x3b4582e5bb879fc3U, 0xbd523965bd648027U, 0xbd0aef2b3cdc40b2U,
  0xbd622419bd14dc7fU, 0x3cf63361bd13f897U, 0xbd2e4ac53cdfe02aU, 0x3c6128fdbcb3ad28U,
  0x3d0b54363d2b386bU, 0xbc06a18abd187feeU, 0xbd6b4330bd28cc67U, 0xbcb15f7abd81af75U,
  0xba81d1c2bd1bda5aU, 0xbced82583c346610U, 0x3d49b8723d448d78U, 0xbd7e7f3dbb883b8fU,
  0xbcc7c85d3cbc011eU, 0xbd60b8213d381b90U, 0x3c7b439c3d4ea361U, 0x3cbd4847bcf654e9U,
  0x3d680d983d5a758bU, 0xbc06ed41bc0eee98U, 0xbcff799dbd4cc1e8U, 0x3baff7dcbc65b8e8U,
  0x3ca904a0bd3e416fU, 0xbbfd0c4f3cfe00c7U, 0xbd7e8c92bcc98e4cU, 0x3d236b213c825428U,
  0x3a7b8a40bc42fea3U, 0x3ca13526bd26a46cU, 0xbd5b56673d2ba4e4U, 0xbd34aafa3cced233U,
  0x3cb04fd9bd466c33U, 0xbd24e3f2bca70416U, 0xbcec1b193c6df52dU, 0xbc1baf09bcfedae3U,
  0x3d24b1bfbd3234d3U, 0x3c7d88903cf01fc6U, 0xbd138e233c1c0323U, 0xbd5fb0853c907434U,
  0xbd6ece32bd651028U, 0x3c4970babc70edc5U, 0x3cb5c0473d2522c5U, 0x3cb13a613c1a8dfdU,
  0xbac558eb3c7902b5U, 0xbd2f38c33c99e914U, 0xbce0b6efbcc953ebU, 0xbbd59a49bd06b9b0U,
  0xbb5bc87dbcc27818U, 0x3cb878f8bd2935a2U, 0xbcd51de93be5a62bU, 0xbcfc1985bcbedb1eU,
  0xbcf9506f3cfd20b1U, 0xbd70a5f0bd1e0ce8U, 0xbcc914debc932c71U, 0x3ade0dd0bcc3fddfU,
  0x3ba0416ebd6a793fU, 0xbd19cddfbd2f0903U, 0xbd81b861bc3e6656U, 0x3d2d1e32bb3873bfU,
  0xbd6fb7a6bd0f4ae8U, 0xbd6e5c433cdc07e9U, 0xbd53d39e3d080359U, 0xbbee0a7f3d10b526U,
  0xbcc427fcbd6439d4U, 0x3ce693d2bb4acabdU, 0x3ce8a24fbc0a7428U, 0xbd4a04bdbd2d05f4U,
  0x3d494e34bcd817bcU, 0x3c859d0fbcbde977U, 0xbc79374c3d4caf60U, 0x3d121e46bcfb4c2dU,
  0x3d1e53f5bc2ed509U, 0x3d5393c7bcc1b55fU, 0xbc7c23f33d0cf2bcU, 0x3d453b5fba636033U,
  0xbba63263bcba2f9cU, 0xbbdfcc4dbd078df4U, 0xbc1973ab3cbf30fbU, 0x3c973b7f3cd9d6afU,
  0xbd3d00c53cbf3263U, 0xbd286eedbd79ef11U, 0xbd2b46443d1939ccU, 0xbcf5a55d3b31c2d8U,
  0x3ccd1f68bd23fe07U, 0x3d04ca313d466dd4U, 0xbbd684243c5c4ae6U, 0xbbdca599bcf19528U,
  0x3c7a8c42bc4058f8U, 0x3d018763bd14954bU, 0x3ceaa5afbd547fb7U, 0xbd636cbc3d3756d3U,
  0xbbe41e233c388cd3U, 0xbd3ba54dbc532cb7U, 0x3d1f61793c95cb11U, 0xbcc25728bd320e4dU,
  0x3c003e64bd521d59U, 0x3cc5c58cbc6ce7bbU, 0x3cb6aa8dbd184c00U, 0x3c9b024a3d3bbe13U,
  0x3c6581efbd3a22bfU, 0xbd3c1bb8bc6884b0U, 0xbd79e98a3d4d4aa1U, 0xbc96217c3d0531f6U,
  0x3d24069bbd4974c9U, 0x3d458fa9bb7ac169U, 0x3be72927bce98b18U, 0xbc94f78fbd5fb8b0U,
  0xbd6794babc580a83U, 0xbd839e703c6e7e9bU, 0x3d28dd483d6c67dcU, 0x3ccdc53dbd211007U,
  0xbd0b5ce43b4bfe61U, 0xbb79d9983d499a81U, 0x3c7ac7363d5779fdU, 0x3d55704e3cf5ed31U,
  0xbbc02bd93d05e44eU, 0xbae9bd333cea7b30U, 0x3c07dd15bcb38fc1U, 0xbd38f96d3d299db9U,
  0x3bc7b200bc908d22U, 0xbc7dc07dbd58fe62U, 0x3c64481a3ccab93aU, 0x3d01a51dbd72104eU,
  0xbcd6d8e43c032b03U, 0xbd254969bd64d200U, 0x3b94afcebbbb8b29U, 0xbadc35dc3cfb14f7U,
  0x3d15b6cebc9e8e19U, 0xbd4826bc3c0211ecU, 0x3d36101a3cebba70U, 0xbd7304723d1e0a1bU,
  0xbd8156e0bd4d7486U, 0xbd2f70ddbd559a8dU, 0xbc0312d73d3f3a06U, 0xbd656e86bd1e18c7U,
  0xbc23c5aa3d2d2d1cU, 0xbc58b194bce0a053U, 0xbd4c9051bd7c3003U, 0xbcaea0e7bd1a3edfU,
  0x3c204f433ba86d18U, 0x3c359d603d07306dU, 0x3d449bd93d122b28U, 0xbcdeb8ca3d23ecbbU,
  0xbca7aaa9bd6115c5U, 0xbd328b843d1633fcU, 0x3d2a82f0bcb8aefeU, 0xbbccb6553c80217fU,
  0x3c6a6df63ac7de50U, 0xbcd01efd3bade331U, 0xbd4ddd743c31fc78U, 0xbcafa28dbc198449U,
  0x3d56b78e3c2382ecU, 0x3d35c8debc936671U, 0xbd2ea0fdbd6296eeU, 0xbd812b263d021ac8U,
  0x3d690afb3cf9d26cU, 0xbd082ddebd1e7e72U, 0x3d31f97ebcd2792bU, 0x3cf883afbd18c6fbU,
  0xbc76ed24bca86c5bU, 0xbd2b83983a9db078U, 0x3d382e47bc948ec7U, 0xbd5ed1a2bca4f274U,
  0x3cb30bcc3ccac7b7U, 0xbbca3ef0bd254e7aU, 0xbcfd9f7cbd6c5400U, 0x3c49ffd6bc48ed04U,
  0xbcb5f578bd4ea3a7U, 0x3cee1f87bce6960aU, 0xbcdf70033d16102eU, 0x3d3b9b1bbd424e3dU,
  0xbbd035d63c2e2928U, 0xbb64165c3d23a114U, 0xbd068020bd6fb140U, 0xbc2f55e2bd135602U,
  0xbcbf2dc5bae1835bU, 0x3d54d134bcec35fbU, 0x3cf5485fbd44ee53U, 0x3befbba7bbe44b58U,
  0x3d0dae303c3f93e0U, 0x3cfef2e5bd1e99e3U, 0x3cf89e79bd67d2bfU, 0x3d38745cbcf5f8a9U,
  0x3d2296443cfb80c0U, 0xbd17dfb33cb05549U, 0xbd6b2b53bbd4767cU, 0x3d131555bd02b87fU,
  0xbd5a484cbcca008fU, 0x3ce63766bbd51d65U, 0xbcb24246bc6ac687U, 0x3d02bea0bd63dfd0U,
  0xbc0ff242bd28fc9eU, 0xbd6284293cd069aeU, 0xbd27f69c3d3e12f1U, 0x3cd50e45bd5f822cU,
  0xbd0c3d57bcea6901U, 0xbcbc912ebc1666f3U, 0x3d584bb0bd06491dU, 0x3d272d653cc58a8dU,
  0xbc6eb1f73d4a8ad4U, 0xbd4a2bd73c3db856U, 0x3cbe82dcbd3d5423U, 0x3b12d3c53d2fe787U,
  0xbba3bee1bbe785e6U, 0xbc49cbeb3cc80042U, 0xbd09a59f3cf133a4U, 0xbcee2006bca25bd5U,
  0x3c20b1f43cdfcf81U, 0xbc5b9e793c9a9004U, 0xbd7d52273c334ec9U, 0xbcc474343cf9dc40U,
  0xbd1c8dc0bd6a9980U, 0x3cc5b4bcbbc94fdeU, 0x3d4af5313d1670bdU, 0x39f48eb4bd4bdf9bU,
  0x3ca6affd3d07ae34U, 0x3d3dce91bd5c653cU, 0x3c33a8c93ca23593U, 0x3d33ed2bbc270142U,
  0x3c9267703d379975U, 0x3d423e15bce16dcbU, 0x3cedb0e8b8d45ca3U, 0xbb8cb3ebbd54596aU,
  0x3d26d2ddbd69e3d4U, 0x3ca4da2e3d413503U, 0x3cac6d7dbcdbf2f7U, 0x3bbce946bcd985c2U,
  0xbd190b48bc063c6bU, 0x3cc415423d1a5361U, 0x3ca56158bcb65d1aU, 0xbd4c4e0e3c276a3aU,
  0x3d6547433d3235b3U, 0xbd49009dbc4de875U, 0xbd23d3d3bd57898eU, 0xbd0fb7b2bcd29d51U,
  0x3be949ca3c6a5dc2U, 0x3d112c7e3c9128ccU, 0xbd51265e3d4e9da6U, 0xbd4f0076bc91b0afU,
  0xbce199d33c482448U, 0x3d4b10e9bd15b2ffU, 0x3d0175de3c3ea4c2U, 0xbd4b4aef3cc10f6dU,
  0x3d4a84383c7c9b48U, 0xbbb8f1bbbc16d82aU, 0xbd0eb0803d39652bU, 0xbce15046bd3b2a14U,
  0x3d0ea2d0bcf3a4ddU, 0x3cbdbb9c3d257765U, 0xbd8110f3bd6ee0d6U, 0xbd3ef1923bf5a5f3U,
  0xbc86cb60bd014139U, 0xbd175f32bc4c7b4dU, 0x3d22277ebca8b15eU, 0xbd708f8ebd282c8cU,
  0xbd56a0abbd571914U, 0xbd162bda3d308bfbU, 0x3c7670513cd3785bU, 0x3c88b45b3d568b8fU,
  0xbd27d64abc8a37d1U, 0xbd38bbbc3c20e4cdU, 0x3d1ae9ee3c7d051bU, 0x3cbd9123bd7a5b9bU,
  0xbbfdacaebd76384bU, 0xbd0e6dbabd204e32U, 0xbc3be18a3c76215aU, 0x3cc8adc4bd70617bU,
  0x3b9c91debc5ed950U, 0x3c48b17a3c15ae2eU, 0x3d342f8e39b25414U, 0x3d0073873cbfa0b4U,
  0xbcc4930ebcecc104U, 0x3d3e83263ca7c196U, 0xbcd687fe3d344106U, 0xbca1a3613d492f66U,
  0xbd730703bd5519f4U, 0xbd708350bce2ad6eU, 0xbce3232fbd218a48U, 0x3d006ea13cdb1f29U,
  0x3c940d753bb736c8U, 0xbc06c9193cbaa081U, 0x3c27fa823d330907U, 0xbc042439bc962c1cU,
  0x3d58eba53d055e4eU, 0x3caf62e63cda1b5dU, 0xbd0c2b24b99fc715U, 0x3c9c9c84bccebc57U,
  0xbc924e1f3d122d6aU, 0xbd13743bbcc71bcaU, 0xbce45faa3c511bf9U, 0xbd0831813bed4b28U,
  0xbd7aa029bce18a82U, 0xbbf58c39bceece96U, 0xbd205bd13d470ac9U, 0xbd2c24b2bc627705U,
  0xbd33d4ffbd4ba873U, 0xbd1b9d3b3ca26e2bU, 0x3c57b9cabd3465f6U, 0x3d3e8c503c6632c3U,
  0xbd5e6f9cbcf37be3U, 0x3c8a686d3d1409e6U, 0x3cf26b0b3c0c145cU, 0xbb8e9b49bd61403aU,
  0xbd0420d9bd668074U, 0x3d475edbbb9cf754U, 0xbd0f788cb911daccU, 0xbd0c00533bddb923U,
  0x3d081cd1bd09d345U, 0xbd75062dbd2c14d4U, 0xbcd3a594bcfe834cU, 0x3b95ff38bb83ec41U,
  0xbd1869f2bd82cfc9U, 0xbc7232afbd1b2bccU, 0x3d2640bd3c9ecaeaU, 0x3cb98f4abd473a1eU,
  0xbca6a3403d476c1aU, 0xbcb7a18f3cc620dbU, 0xbaa286b4bce582aeU, 0xbd6c1bffbd4320d3U,
  0xbbf0c5a8bc935accU, 0xbd2e63e2bbf449a5U, 0x3d2bfc33bd5e5902U, 0x3d2233e43d4b806cU,
  0x3c936a413d4a4e4dU, 0x3d3b93333c857620U, 0x3d5290993c4879e1U, 0xbcefce4cbb08cb8fU,
  0x3d3e38a53c0e215dU, 0xbacb12c33ce9c0d4U, 0x3ce50c1bbc083061U, 0xbd4eaebabc902817U,
  0xbc5e1796bd3b4d1fU, 0x3bb1cdb3bc93e64bU, 0x3d0046533aca0621U, 0xbcfee10fbd28559cU,
  0xbd2d102ebc024238U, 0xbc962c8bbc5cd859U, 0xbb482f56bd80cb1cU, 0x3cb1e1ebbd10cfeeU,
  0x3d3befa03ae9afd3U, 0x3d2a89ea3b838a35U, 0xbd121a303d1ddedfU, 0x3d16b3643c6c3869U,
  0xbc88c395bca8584fU, 0xbbfa90ffbd6f4b23U, 0x3d1c4ac5bd47aa4fU, 0x3c542aa1bc47e6d7U,
  0xbd34980cbd449357U, 0xbc34a958bbc277d9U, 0x3d371ba3bd80029aU, 0x3d00a1163d0e7526U,
  0xbd184be33d24d419U, 0xbcbe325f3c2c6388U, 0x3cbeb5babca0b9a3U, 0xbd1210f6bd04b496U,
  0xba202da6bcdd69a3U, 0xbd4c91d63cd13e8cU, 0xbccd6054bb9f0c43U, 0xbd0b60f3bcb3f6ccU,
  0xbbe192afbbe78ce2U, 0xbc3242503c062345U, 0x3d2f77843c860f58U, 0x3d54dd1ebd230bf5U,
  0x3d5413ad3d630aecU, 0xbbb16958bd236ad6U, 0xbd3cf3923d1040f8U, 0xbcc1ce16bd5cc24fU,
  0x3d73919abd1e960dU, 0xbd8216c5bd843edbU, 0x3d183c223d11e8eeU, 0xbcbcb7af3d145ed4U,
  0xbc800b6f3ccad1beU, 0x3c883b7c3d1bc9f1U, 0xbd16fb3abc0a4e05U, 0xbd6dcb153d2614a0U,
  0xbd62138cbcf170f9U, 0x3d3eb40d3bcc0a87U, 0xbd2ebba2bd3891e1U, 0x3d456520bbf2d9c0U,
  0x3d35e95c3c2a36e5U, 0x3c1fb5f7ba81282aU, 0xbd3b336cbc76f705U, 0xbce04c983bf79f35U,
  0x3b9ff3a9bd086888U, 0xbbae8039bd80395dU, 0xbd7c590cbd3d5ed9U, 0xbcc094903bb1de41U,
  0xbd64bc863cea3c5cU, 0xbd67039dbbb98cddU, 0xbd38d43c396e242cU, 0x3bfc77adbd2a326fU,
  0x3d0c83e2bd4f8655U, 0x3d42918fbd823dc4U, 0x3d4c8c48bd46b38aU, 0x3cad743c3a637b31U,
  0xbd6ffc3bba89de64U, 0xbd163c503d223148U, 0x3d4c24803d123a87U, 0xbb0bfc08bcd43286U,
  0xbbe54dc0bd489ecdU, 0x3d0cd1a93d297bd6U, 0x3d5333a53cdc7fdeU, 0xbd02957d3c0282f3U,
  0x3c910e9ebd1e610cU, 0x3d3034d7bc4e84caU, 0x3cc2b9e03c44bd46U, 0xbd6030b2bd82ae85U,
  0x3aee1c983c8d95e7U, 0x3d23da19bd0f225aU, 0x3cb6ae20bb7561ecU, 0xbc8931c1bd7062f6U,
  0x3be0360f3c2a6029U, 0x3b9c9936bd5d5384U, 0xbcde63963d212cb1U, 0xbd463a12bd7b3b7eU,
  0x3b965b5c3d52a6a2U, 0xbd619d143d03d37aU, 0x3d4f5538bc9e002bU, 0xbca72d1d3bb8ae5aU,
  0x3d6f5b57bb450032U, 0x3c7da89fbb871133U, 0xbd30e8363cf50f29U, 0xbba47ffbbceb5d14U,
  0xbd0d850abc90cdfbU, 0xbcdae4573cfd1e21U, 0xbd3af11ebc6dd275U, 0xbc62eebebd234455U,
  0xbaeab6b3bcd5ccbbU, 0xbd586c10bd607a9aU, 0xbd139578bd00d0c3U, 0x3c50b2a43d270ca3U,
  0xbd6a48573c7af22fU, 0x3b340158bce490c9U, 0xbd06413d3c51ca18U, 0xbcdf3898bbfa0167U,
  0x3c06d421ba30ddd5U, 0x3bb14440bd55ab85U, 0x3bda712abd7bfb17U, 0xbd24e686bb0e6ee7U,
  0x3c9d0402bb51d368U, 0xbc996f893c61e51fU, 0x3bc0dbdc3c738077U, 0xbd5e959abd2bae64U,
  0xbd4c87e8bc897f6eU, 0xbcbfdeb2bcf55d29U, 0x3cd50f5ebd55894cU, 0x3d452b773bcbf99bU,
  0xbbc9c62ebc81b5b3U, 0xbdae10f7bd82d6d3U, 0xbdc9384abc887406U, 0xbde5bd8cbd48b3ddU,
  0x3d0d24a1bd3cba9cU, 0x3b8a6545bdbb108aU, 0x3c9a1cc83b621cc2U, 0xbd7a90bdbd439ef4U,
  0x3ca3bed0bd776427U, 0x3ceb467ebde89a76U, 0x3d082407bcad36b9U, 0xbd234a623cc6d372U,
  0xbcc6550abbdd7102U, 0xbc9605433d2b4815U, 0xbb6c07583d30227bU, 0xbcedad09bd967ddfU,
  0xbc978bddbc80d56fU, 0xbcabbddabd70e66dU, 0xb8357dacbd83ea94U, 0xbd5762703d180114U,
  0xbd561b443c9dfffeU, 0x3cc336d6bd370e84U, 0xbd24ff1c3c0ebd3eU, 0x3ca5017cbc4a8360U,
  0xbd93c89dbd7d49dcU, 0xbd1cb3d33b090864U, 0xbcb5df0abd816570U, 0x3d0ea7a13d338be4U,
  0x3bce5127bd3df80bU, 0x3d20703bbd61ea3dU, 0x3cc0b2e93d8e3ea8U, 0x3d12fea43c4144e8U,
  0xbd7de6ae3c38a17fU, 0xbd4e7c023c73f446U, 0x3c78e0243d2c87ffU, 0x3d1c0ef13d5e28a4U,
  0xbd5cc335bd62dc65U, 0xbd1e57433c824a36U, 0xbd1c1f283dca9ac7U, 0x3c8df376395ad0c8U,
  0xbc86550b3cfd8e96U, 0xbcb8d851bcc3e8f4U, 0x3d860c6a3d0646eeU, 0x3d9e45563d46bf6aU,
  0xbc84201fbda53051U, 0x3cc1a311bcd4dc92U, 0x391b92ba3d3f82d7U, 0x3d4b0811bd44cd9eU,
  0xbe0353ba3c8dfeeaU, 0xbd180bda3d856451U, 0x3d371488bd1bbeb4U, 0x3d20e6db3d2616f6U,
  0xbd10174abe38b5dcU, 0x3d11e129bb35aac3U, 0xbce1375ebb938f84U, 0x3c879163bd2a4742U,
  0x3cc4d06d3c8e1233U, 0xbc04b5013ccae942U, 0x3d455966bd9a5a59U, 0x3bfeeb503d232573U,
  0xbd517357bdfd6b58U, 0x3c77c7c33ca5a637U, 0xbc695d46bd7d4148U, 0x3c5e83f4bd46f10cU,
  0x3a7cb370bc937b82U, 0xbc85817ebd9e873bU, 0x3cbcd45bbcdfc5baU, 0xbda04781bd1022cfU,
  0x3ba04dfebd94cd65U, 0xbb986313bd9226a1U, 0x3d0e50873d8da5caU, 0xbd29e127bc65a74aU,
  0xbd260014bd85a8e9U, 0x3d1931713c0b8a28U, 0x3c010014bd18e0ceU, 0xbd0da396bda4a2f3U,
  0xbbc1e40b3bcc3ee8U, 0xbbcb2ccb3d4320cfU, 0xbc59199b3b446abfU, 0xbcd2a7743cbaf1c2U,
  0x3d3fa14e3c8a272cU, 0xbccdb12e3b7acdd2U, 0xb7c69278bd78a2b6U, 0xbc81d0f7bd31293eU,
  0x3d82f0cabd8b8a6aU, 0xbd404f7ebd2fe1faU, 0xbd3860f93a9a3484U, 0x3c083ed8bd941aa4U,
  0x3d23138ebd955797U, 0x3d0383343baf6516U, 0xbcf9b7e5bc2216d2U, 0x3bedfba0bca062c6U,
  0xbd5607943d9ab69eU, 0x3d66ceb4bd598389U, 0xbbf39de0bd8755cbU, 0x3d5cd5a8bd8ee058U,
  0x3ca9abedbd8ab765U, 0xbd33c9a03d6db2f3U, 0xbda7fc0b3d532cf2U, 0xbc1ee6a23cd00f00U,
  0xbc3bbb9d3cba1442U, 0x3c3d35243cad75e5U, 0xbd084638bda988a6U, 0xbd48abaa3c597b95U,
  0x3cbe95b1bc3b6285U, 0xbbdaf77abd33c4c8U, 0xbd862ad3bc4a21b4U, 0xbd1ff7973d45c128U,
  0xbbe62ba73c051e90U, 0x3cf91b24bc278311U, 0xbd80ce59bcdcb928U, 0xbbaa618dbc641349U,
  0xbcffd4babce80657U, 0xbccc2e1a3d0bd755U, 0xbbd514e1bd1b7ab6U, 0xbd48dd503bf223a1U,
  0xbd95301cbcf871fbU, 0xbd000821bd7b456fU, 0xbd1768f7bcd1f0a3U, 0x3d1a73c8bd50f7e8U,
  0x3c9b8f5c3c8a29c7U, 0xbb926aa13cf001b9U, 0xbda9d9b53c2f7b79U, 0xbbf4ef07bbaffe26U,
  0x3cbaacd1bc123e21U, 0xbd3ec4f0bcf2acb6U, 0xbce2a8febbffcf64U, 0xbd88da633c75dc58U,
  0xba1d0872bd636ae6U, 0xbc8659473cb273cbU, 0xbaf7c115bbde0db1U, 0xbd19e6073cae0d30U,
  0xbc4b219ebcf0879eU, 0xbd0a2368bcdd9819U, 0x3ce491e3bd2827bbU, 0xbc1f2e993c5ec0afU,
  0x3cfba3c73b882fe4U, 0xbc0645a63c723ca0U, 0xbd0c7897bc664044U, 0xbd97757cbca3bb4eU,
  0xbc89535d3d17acf7U, 0xbd8503c2bba69b12U, 0xbd90eab1bd81462cU, 0x3b83bdc53c8efbb3U,
  0xbccfa67c3cab43a3U, 0x3c9ed7c8bb1c0641U, 0x3cd13c84bceeca87U, 0x3cf6263ebd3b778eU,
  0xbc93a6b03d304dfbU, 0x3d11a511bd9dc997U, 0xbd617b82bdccabb3U, 0x3c87b37a3c04e049U,
  0xbd52d953b8953d62U, 0xbda800b9bd5e1956U, 0xbd8faf0fbd05644aU, 0x3c79d9e3bc28b41aU,
  0x3d92b5be3caba719U, 0xbd795f47bd70be26U, 0xbd0dae323d0bc922U, 0x3bb15a0d3c82af9aU,
  0x3cd400a5bcaa994cU, 0x3d48cd8d3b9ca052U, 0xbcd6f20cbd01ebd7U, 0xbd46ee97bc202774U,
  0xbcbd15233daf1404U, 0xbd5d35f93bc728aaU, 0xbd0eaaab3cf5cdc7U, 0xbcc81b5d3c9667d9U,
  0x3c56047ebd142cf8U, 0xbc2157f13c1935beU, 0xbd227e463d51256dU, 0x3c5b2cd53c9d4ec7U,
  0xbd4774723da0cf2bU, 0xbd177cff3d1cca37U, 0xbc832b31bd76a56dU, 0x3d5b13a9bcdc3c76U,
  0x3d6fa8273cc7aceeU, 0x3bf919a9bbe79a16U, 0x3cc40a163d27f231U, 0xbc04af9c3cb3c4a7U,
  0x3d7f87a73d9cfbfcU, 0x3cc4563bba964c57U, 0xbd58f19fbd9e3716U, 0xbcca75aebcf73443U,
  0x3ceb1bc2bcfe6fe8U, 0xbcabda253d0120c3U, 0xbcedaaffbbe1ace3U, 0xbd2e01f93c4dd0fcU,
  0x3d23e7bd3c97699dU, 0xbcdde4e6bd5c1826U, 0xbcb13cc8bd605ea6U, 0x3d21a7823d7ab616U,
  0x3d3c5c873d2ee239U, 0xbcae25da3ce42536U, 0xbccf634dbd7ab035U, 0xbc2321ca3b4cdbabU,
  0xbd9f945a3d693d61U, 0x3d4aa221bc2c5927U, 0xbc29cacebd2b81b9U, 0x3b2edad4bd53be4eU,
  0x3d64424dbcb6bb62U, 0xbd4ee9dabc02964eU, 0xbd20e9a93d6f8d14U, 0xbcc809673c21bee1U,
  0xbcf215fb3dc5c045U, 0x3d377636bd759056U, 0xbd23f1efbda8edb3U, 0xbd9037f9bca2a4eaU,
  0x3d03704cbb6001c0U, 0x3c8e692dbc49d14eU, 0x3c9427dcbd7fa982U, 0xbd4f85633b6b702dU,
  0x3dad0f613d882576U, 0x3d4098353a386e4cU, 0xbd80a0043baec13dU, 0x3c81c2c4bc908906U,
  0x3cf0ee9bbd19fd49U, 0x3bb82923bd98a3a3U, 0xbd46d792bd7c5474U, 0xbd26548bbc08711cU,
  0xbd8242f53a7ccaa2U, 0xbd02109c3d4067b3U, 0xbc0740633bfa7104U, 0x3cb61b95bc4422dcU,
  0x3d6004ed3d0aeb0bU, 0x3c252084bc1d2e28U, 0x3cfd9de83c2a512cU, 0xbd04491b3d0e1e6eU,
  0x3cb52c9f3d405f54U, 0xbb361c373c6dd9c6U, 0x3d00c8563cd772f7U, 0x3d25f690bd89123aU,
  0x3d5289ab3d267b20U, 0xbb102ff2bccb0a9bU, 0x3ca680f23d3f90abU, 0xbc09f768bd7a9052U,
  0x3c42f0efbd4d8862U, 0x3ccf4a36bc654a16U, 0x3d3336c93d012414U, 0xbc0723273d348f42U,
  0x3cfc9f7ebb9d1a74U, 0x3c6daf8a3d39d210U, 0x3cbb94823cd7a3c6U, 0xbd22783a3c942f61U,
  0x3d319fd73de84641U, 0x3d9e23733d95cfe2U, 0x3d7bad8e3d1301c3U, 0x3daf0cab3c679a8bU,
  0x3d1b3bfc3c877346U, 0x3d875876bcd56dfdU, 0x3d81c1f3bd179a5eU, 0xbccea3b33d35f6cbU,
  0x3c82f5383c93674fU, 0x3d1efd6bbbf7bc98U, 0x3d8e4521bcb4f94dU, 0x3d5a1f913b5b13e7U,
  0xbbcad08a3d378846U, 0x3d108e493ccef2e4U, 0x3c2398f4bcd0a5e7U, 0xbd2c156e3d134b6dU,
  0x3d6ffb5a3d9fd232U, 0x3d720fbabd0a1382U, 0x3c526f7fbce1fcb7U, 0x3d354c7c3d75a0dfU,
  0xbc483cfc3a94ce09U, 0x3c0ee55ebc9107f5U, 0xbd1695783d969a89U, 0xbc5690363c91e895U,
  0xbc389a5c3dbfb8d6U, 0xbbbea99c3d47dd1dU, 0xbc9f757b3d06f987U, 0x3d8cebcf3d6bba4eU,
  0xbd8aaeb73d2a281cU, 0xbc57f0a0bce1a48eU, 0xbce8a3b0bbf712cdU, 0x3da1c152bc5d7c4cU,
  0xbc5c4872bd2861fdU, 0x3d09397f3cc6ee6dU, 0x3d9b88733c7dbb32U, 0xbc27af753d8ff2b9U,
  0xbccf10a83d10c5b4U, 0xbcc7519a3c4d435fU, 0xbaa8b1a13d663a8eU, 0x3c31cfa33b761551U,
  0xbc9aaf56bc9140fdU, 0x3cd2cbb53cc0e2b4U, 0xbd41abfcbb6887c7U, 0x3d21a6b93aa39941U,
  0x3ba4ed5d3d09817aU, 0x3c01ad92bd1a4ad9U, 0x3d3bdab23d695fdeU, 0x3d5ff3533d73ffceU,
  0x3db0d3523d20d112U, 0x3d51735a3d19d2ddU, 0xbcdc575ebd0ed5a2U, 0x3ab757c33d6bcad2U,
  0x3d71028c3c5adfd3U, 0xbd00ea3abcc3db06U, 0xbd5af60abd0b8dc5U, 0x3b9dec7cbd4165e4U,
  0x3c8c6e7f3d6ee2d8U, 0xbd231e693d80c079U, 0x3ce94f0f3d02d04fU, 0x3d26a0b9bd44e5caU,
  0x3d317376bd0e58a5U, 0xbd6731533d063bfeU, 0xbd683f7c3cd691e2U, 0x39fb801b3d374b81U,
  0x3c4d8ba73a641412U, 0x3baac69ebcb73d9cU, 0xbd09d683bd233ce9U, 0xbd32f5eb3d2350d3U,
  0x3cfd9cc03d521383U, 0x3caa418cbc0475ebU, 0x3ce254ebbd30b273U, 0x3d6fdb233c6ad664U,
  0x3bba46c93c0fbd49U, 0x3d5443703c910025U, 0xbd3ade833d92e8daU, 0x3bea89263b914061U,
  0x3ca657653d337b6bU, 0x3d0a04973ca7cd45U, 0x3d4b14a33d2b963dU, 0x3cf63f6abaaf0630U,
  0x3e0d8e34bc4ae1c3U, 0xbbf7c4e03d706846U, 0xbd0e0e823da0e410U, 0x3d774f0b3b1f0f02U,
  0x3b7f11813c0ce7acU, 0x3d0ff3e83cdc730fU, 0x3d13a56b3c8c1a9dU, 0x3d99e8d13ca7709fU,
  0xbc506cbcbc2dfdeeU, 0x3d57759fbd1cfc62U, 0xbafc1208bb688611U, 0x374929883d8e63e0U,
  0xbac01c37bd16b611U, 0x3a1bf7f43d97a573U, 0x3c17ecaabc9e91a2U, 0xbcd84a90bd1cb5eaU,
  0x3d15862fbb9d1b55U, 0xbcc9ac793b546227U, 0x3b77db75bc4680f9U, 0xbc6daa5d3c82c835U,
  0x3d09d35cbc4002e4U, 0x3c4101553cd9b53bU, 0x3d74bdfbbb3d6af0U, 0x3cfee56b3ca999f7U,
  0xbc03bc0c3c7fc3a4U, 0xba395f9b3daf00e3U, 0xbc95467c3c9d5750U, 0x3ca507b0bbe82905U,
  0xbc8dac683d023214U, 0x3d5c58d43dc0d3b7U, 0x3d63b6223d75e186U, 0x3c856e2cbc602d8bU,
  0xbc79253dbd8152a5U, 0x3d856e25bd1ed074U, 0x3d82dcbabb952045U, 0xbd66f6d23d4705f7U,
  0xbd2266303ca646ceU, 0x3c8bd63d3cdb6e6dU, 0x3d6bf82fbd0d4087U, 0xbd07525cbcd026edU,
  0x3c186ab7bd86fd9dU, 0xbc16c83f3d2c1525U, 0x3ccbc5843c5fc3a5U, 0x3d357dd13d62f634U,
  0x3da7f550bd450e7eU, 0x3d4517603c8bb31fU, 0xbc7c714cbd30d13fU, 0x3d61cf7cbcda49a0U,
  0xbda5cc62bd16548eU, 0xbc40731abd0482ebU, 0x3d0fe6513ca7d140U, 0xbc2851693d7e4aa8U,
  0xbd46b4a53d7ed1d3U, 0x3c2df33abd1f6b81U, 0xbc833a093cff14e4U, 0x3d1cabf93ccb46d9U,
  0x3d9b23123cab5c40U, 0x3d6e26ff3d4d977fU, 0x3cfec55b3d1b4ad6U, 0x3c21c931ba9968dbU,
  0x3ca2c6fd3c523a84U, 0xbd4d3e33bd0a573aU, 0xbc73dba7bd41ed01U, 0xbd2509f4bc190ad5U,
  0xbcd42b84bd523b00U, 0x3d1046cb3d35eb30U, 0x3c1926523c897c22U, 0xbd259276bcfa2e6bU,
  0xbd993c383d071985U, 0x3d6aeb8bbd39aa61U, 0xbc9c02943d1b1c90U, 0xb9b72c893cedb1a4U,
  0xbb142660bda857c9U, 0x3c641d16bce7aa77U, 0xbbb145dc3cf08e44U, 0xbab19e6dbc8ebd36U,
  0x3d873c053d2913a3U, 0x3d07508dbcc5878eU, 0x3ba9c98fbccfaeabU, 0x3ca8ee253c824d37U,
  0x3d138c39bca6b595U, 0xbcd4d3913cb32e94U, 0xbc1bc741bc35d082U, 0x3d13d6513d8e91c6U,
  0x3bfbb8573d849d9eU, 0x3da98db23d55f49cU, 0x3d4e2ef9bd06c8e0U, 0x3d9fac023b807c44U,
  0xbd0ebd703d3eb545U, 0xbc5186de3d9a0975U, 0xbce1b22abc1ac5ecU, 0x3bdee28c3d1f1193U,
  0xbd0224523c1ad2c0U, 0x3d02aa133b565723U, 0x3c956c14bd315e58U, 0xbcacba2d3c211860U,
  0x3c2514993d770003U, 0x3d82c63e3d66456dU, 0xbcee50dbbc3be834U, 0xbb930c653d730175U,
  0xbdad95883d33ae91U, 0xbc7b98f33d3bde29U, 0x3d3203b2bcc13893U, 0xbceb594c3d392d04U,
  0x3d89fdb1bd71f998U, 0x3c1426193d446d95U, 0x3d0ebcebbd09f06bU, 0xbd31467bbc97f2bfU,
  0xbd8d7cfabc369588U, 0x3d5776483d91f46dU, 0xbd5659f43d547a96U, 0x3d69da65bd8a7dc5U,
  0x3c8445ccbdd3ecffU, 0x3ba48630bd580f89U, 0x3c569f653d8c57daU, 0xbc0c9397bce18fd1U,
  0xbc9b610ebd20b6f5U, 0x3c5b6f99bd926db0U, 0x3d8576713cd5549eU, 0x3be00bfc3d794c78U,
  0x3b1ec508bd676db9U, 0x3c7a38033c15431cU, 0xbcd77d3c3dcd2122U, 0x3d9729e2bce5522eU,
  0xbd252e83bd231d80U, 0x3c655fe0bd2f967dU, 0xbcb363c1bd05819cU, 0xbc9af559bcd2ce57U,
  0xbd41da883c475c8cU, 0x3bd7be43bd11db90U, 0x3d0ffddf3ca6d21fU, 0xbc0b8398bd0128c5U,
  0xbd201d17bcdd892aU, 0x3b1bae24bd1fca75U, 0x3d5c1b8c3d73aab5U, 0x3d032b37ba0c7456U,
  0x3d051a3cbbd84403U, 0x3a596bccbd61f366U, 0x3cf003843c840edeU, 0xbd36a70ebd361069U,
  0x3c93ccbc3d45d03fU, 0xbd62e8433cb1969fU, 0x3ccfe0c5bd559914U, 0xbd45b4df3d45a00bU,
  0x3d820901bd260f0bU, 0x3d0d5e11babedff7U, 0x3d2135be3d02fbdfU, 0xbce06baa3c31282cU,
  0x3d4c3439bca2d473U, 0xbd60fc66bc54290dU, 0xbc7cba7cb9d83939U, 0x3bd10cb2bc5b287eU,
  0xbc416d3b3d85761cU, 0x3d581bc53c6476d6U, 0x3b4620273c8266beU, 0xbd0caa61bcb45ce5U,
  0x3d57d62cbd9bd955U, 0x3ca7c9dbbd97b4aeU, 0x3ce4719bbda09c3bU, 0xbd553fa0bd4d4b66U,
  0xbdd1a376bd25b9f9U, 0xbd340b43bd071642U, 0x3cef5b353c9f1a0aU, 0x3d431dabbd1acd6cU,
  0x3c1f958cbd172039U, 0xbd00a941ba6a5659U, 0x3d707c6a3a859ff1U, 0x3ba2ab61bd171e8bU,
  0xbda7a12ebd86a0d8U, 0xbd3b84b8bcbcbda2U, 0xbc246db0bc4920e2U, 0x3d8a6addbaaa872fU,
  0xba8419653d28b059U, 0x3cce6a06bc3170abU, 0xbc8e9860bc2b139bU, 0x3cb264e93d3fe5c5U,
  0xbcfaf32a3d517700U, 0x3d3826a5bc10d87cU, 0xbc9b05003d0c9482U, 0x3c9e8a413b585b7aU,
  0x3c6370d23d6d0e81U, 0xbc3591343d23f6bfU, 0x3c3f5b3e3cc54f15U, 0x3d3c5922bc171107U,
  0x3e115b473bc22acbU, 0x3c2b796fbd7c5dbeU, 0x3ca13ac4bd58a62aU, 0xbda1df38bd0cd49fU,
  0xbcc61365bd6189e9U, 0x3d7ce0e03d2796cfU, 0xbd81c9b83c0ef7c9U, 0x3bb9dfa4bd570703U,
  0x3d823eeebcb7fa29U, 0x3d4f7b79bd0b3ee1U, 0x3b688bb63d244f0cU, 0xbcdf771ebd133756U,
  0x3d920bccbd9f1591U, 0x3c18d2963d374eadU, 0x3d10876ebd52e6f8U, 0x3c2570113d5eabe0U,
  0xbd646aaebc9f7664U, 0x3d8dde7abc40f068U, 0xba91667a3cc05148U, 0x3d2fe415bc7c54e4U,
  0xbc96476e3d052ddaU, 0x3c0da8e6bc840202U, 0x3cc621423d389401U, 0x3cdedfb43cc5ad07U,
  0x3cda0729bccc3ddfU, 0x3d0655aabd0d0ebaU, 0xbc5e2aad3d418d05U, 0xbb70e28fbca387e0U,
  0xbd256570bd21c6eeU, 0xbcc029423c620812U, 0x3d2785d93c592358U, 0xbcf77e6ebcabbe8eU,
  0xbd549f1e3bd3163bU, 0xbd6b3e393c972096U, 0x3cd1c61d3d3f86caU, 0xbd29c142bd4caaaaU,
  0xbd1e87b93d5bdb51U, 0xbc5c60e83c12910aU, 0x3d0e8e3b3c6cec7fU, 0x3d19ea5639109613U,
  0xbd0494f83d9e24a4U, 0xbd1590ee3d2d8583U, 0xbbb8020fbcae08b6U, 0x3b65f54f3c23d0d7U,
  0xbcd35b8ebd1371d9U, 0xbcf75e0b3d092cbeU, 0xbd3a51a4bc98efdfU, 0xbd362d41bb8b5982U,
  0xbc4435303e10afaeU, 0x3d7943a23bda2c9fU, 0x3d0972e3bd7ceb4bU, 0xbd21b989bd5bbd5fU,
  0xbcfc995bbcc40755U, 0xba263a1abd388a19U, 0x3c98a14c3c47c1dbU, 0x3c9d5d823d255268U,
  0xbd67f5583d0d4464U, 0xbd7464d9bcc02535U, 0xbd581e933d02a3aaU, 0x3d936c15bd001d53U,
  0x3cd8544dbc34825eU, 0xbb5209c93d0380b8U, 0xbcbda1a8bb1848b6U, 0x3bfd7fec3cf041ddU,
  0x3ce0b570bd71ce83U, 0xbd22f9df3d262705U, 0x3d5af1ce3d848c1dU, 0xbbd3deecbd2c035fU,
  0x3c95063d3c8e8504U, 0x3d135d9cbb026731U, 0xbcad4fa13d102805U, 0xbc5ea6d8bad0e789U,
  0xbd5e16a5bca0f844U, 0x3cec65eab92e0a8aU, 0xbc09dc7a3bf18ce7U, 0x3be745fe3d8183edU,
  0x3cbb32aebc9ec885U, 0x3d82e7073d0954f9U, 0x3c4f4843bd10ddaaU, 0xbb83d1833d0e7702U,
  0x3cc661e13d21379fU, 0xbcc384e83ba46f1aU, 0xbd444ef7bc2931a2U, 0x3d15b74a3c3a7b78U,
  0xbcae51f13cbb4188U, 0xbd48c3943ca2dacdU, 0x3cd7dd373c327f3eU, 0xbd7d3eda3d601005U,
  0xbc57a95f3dd74b64U, 0x3b9af44b3d6786dcU, 0x3d69031d3d48ff20U, 0xbcf7bc95bd3e32d5U,
  0x3d0d909d3d17d6acU, 0x3d41be3cbce36deeU, 0xbbac8052bd918049U, 0xbd3b6e34baa4666eU,
  0xbc2c0aac3dcbaf35U, 0x3cfca4af3b692d0dU, 0x3d17312abcd92ae3U, 0x3c0bd57bbd132555U,
  0xbbc4c6863c2416e6U, 0x3d29b1c7bcb71b37U, 0xbc401f3bbbf0053bU, 0x3cd72001bd5d1beaU,
  0xbb072a433d301d4fU, 0x3d2cbbebbd5f5ba3U, 0xbc25e9a6bd92ecc1U, 0x3ca396103b7f3f42U,
  0x3d73ee023d04cfb5U, 0x3c4772b5bd6d63a6U, 0x3d03f1fb3d741a02U, 0x3cb688863c885079U,
  0x3d4f3ced3cf41445U, 0x3d1238d3bca53f0eU, 0xbd28bde0bc470b18U, 0x3c8846ac3ceb9980U,
  0x38a80666bc150551U, 0xbc76caba3cbe33adU, 0x3d6c8403bd33b3dbU, 0xbc6eb539bd2530cbU,
  0xbcdb6a493daf2797U, 0x3d2822703d89b621U, 0x3d262d013d881837U, 0x3dd32da63d23e781U,
  0x3c9c4c653d01b54fU, 0xbd6aca05bd4179ecU, 0xbd871b1c3bd70f43U, 0x3d7dea413d37a397U,
  0x3d70133cbb8361d5U, 0xbcdf20513d7e2d8dU, 0x3c43b7223b88d131U, 0x3d2ea1853d4e910fU,
  0xbccae7a13d38bdaeU, 0xbc5a72e7bd4fcbf3U, 0x3d93ae84bc285934U, 0xbd2f7ee9bb956f87U,
  0xbdbb87cebd146cdeU, 0xbd81f1abbcb17e81U, 0x3cee4bd33d846755U, 0x3d448ea2bce82368U,
  0x3cb223b33d315041U, 0x3c465983bcc7f483U, 0x3b9052e53d361e46U, 0xbd2b214dbb589cc2U,
  0xbc68d833bc3fb012U, 0x3c708bc73885fa9bU, 0xbcdbcd713d1e6727U, 0x3d025f813c9c5f7bU,
  0xbd91cf00bd2c71baU, 0x3d1765ccbd2f07e0U, 0x3d6f69af3d6e96bdU, 0xbd6ea21dbc660990U,
  0x3c82ac52bd52484eU, 0xbcd02ce33d66718eU, 0xbc45125cbcefe7d1U, 0xbc846b2d3d7a6ef0U,
  0xbb03ae233afec872U, 0x3d2afa713d3965a1U, 0x3b3b6d93bd071e80U, 0xbd020144bd07e2e8U,
  0xbc63ecedbcda13a3U, 0xbb55f5d3bc055e77U, 0xbd37ad6a3c4bb034U, 0x3d1d654ebd0ede39U,
  0xbcaddc623d4a6288U, 0x3d8236193c45c5c0U, 0x3cc7bedebcfac72dU, 0xbd198a76bcaee291U,
  0x3c630afcbd4e2783U, 0xbbc93ddf3cda9b69U, 0x3d015b793ce157fdU, 0xbce0fe903d100f3cU,
  0xbccbc4abbcbae1f4U, 0x3ce21f243d419835U, 0xbcb07e3f3c4a2c07U, 0xbd7cbed33d44973eU,
  0x3c890eb2bc8b771dU, 0x3d39a9b03cb3a4c8U, 0x3d7ad10a3d3acde8U, 0x3c9207cebd2b8e44U,
  0x3c956a763a8e4174U, 0x3ce30afe3d035f7bU, 0xbce80f0dbc80278eU, 0xbc06377f3d726341U,
  0x3c90e7593c533462U, 0x3d14442d3caa2ad4U, 0xbd13506f3c5ad41eU, 0xbd1ea37dba976573U,
  0x3d71c87f3d0a4748U, 0x3c68e45fbc2d8abaU, 0x3c2d09abbd59e64bU, 0x3c21e4e43bac4d26U,
  0xbc69db603d51727dU, 0xbb78e85fbd3e5ffcU, 0xbd710d11bd583771U, 0x3c71adbfbd3247b7U,
  0x3d2990e83d78301fU, 0x3c90ade23b990e6dU, 0x3d66c26d3bf9b57dU, 0xbc6ddbe7bc49ed50U,
  0x3c89dc603d2e2ff6U, 0xbae6c36e3d80efc9U, 0xbc07bf15b978fa3fU, 0x3d576d323cd121bbU,
  0xbd6aad343bb1011dU, 0xbd424829bb9cda7aU, 0xbd2c35223d0ec4d4U, 0xbd91616f3cb1daf8U,
  0x3d9bcd1bbda148daU, 0xbd849d16bd647984U, 0xbcc9a8abbbc40cb5U, 0x3d28b67d3cc9dc81U,
  0xbdd5cdbdbd7109b7U, 0xb9e0fd063d12f6d7U, 0x3d3f18c7bc280c36U, 0x3d2b63183d1e9bbcU,
  0xbe0a652fbe1ad161U, 0xbda5ef27b9b6692eU, 0xbd97e9a53d7002acU, 0x3ba709a83cba11b6U,
  0xbdcbeaa8bd18b2bfU, 0xbd77fd95bbe5cc8fU, 0x3d63140aba005690U, 0x3d3489cc3c15b5d4U,
  0xbd83c2e5bd96d518U, 0x3c80b51d3c177f64U, 0xbb74fef93d08d5b1U, 0x3ca0bb303d469c1bU,
  0xbd53e9a9bd8079c0U, 0xbd5cdd26bb05d31fU, 0x3bc1586cbd15a6d3U, 0x3c769ef9bc0c3af0U,
  0xbd76b310bdeabb43U, 0xbc97d289bd32b8d2U, 0xbd82c722bc951768U, 0xbdaa55453c6a7f8eU,
  0xbdcd275bbc8c13edU, 0x3c778d85bd79b7a8U, 0x3d8e7155bd889420U, 0xbc7f0b55bd7c0660U,
  0xbcfa8c42bdc576f7U, 0xbd88b455bca7a144U, 0xbd4519c63d56ad05U, 0x3d31b0c43baa5fccU,
  0x3c9f7ddbbc0f8580U, 0x3d76734ebc6829e9U, 0x3d0d59233d1f006fU, 0xbc9c9e383c861cb3U,
  0xbda6b9b9bdba28e5U, 0x3d02fb39bd2d7344U, 0xbcbc9ce1bc9e3f28U, 0x3c00b2b63cd2d342U,
  0x3d074dd7bcc955a8U, 0x3d73336fbb7b5d06U, 0x3d2426bfbd41d455U, 0x3d6ed8673d3a8e58U,
  0x3b695cb9bd48b9d4U, 0x3caf77fbbd32fd8dU, 0xbcb41959bcfdd8a7U, 0x3ba77fa73c142d13U,
  0x3d077383bd376466U, 0x3cf8a761bc079d6eU, 0x3b33607fbc96a406U, 0xbc87beaebbf6f82fU,
  0xbd3bb00b3ca29e0dU, 0x3d11ba063d8505e8U, 0x3d81c286bca231f6U, 0xbcc5cc573c510a41U,
  0xbd6c6c093d234f43U, 0x3c25b91dbcfbb98cU, 0x3d0cd2eabd67d34aU, 0x3d3ba684bd1b113fU,
  0xbbc84b5bbd0573ceU, 0x3d646e7e3d87ababU, 0xbcdcba0d3bb56eaaU, 0x3d6bb215bbebf11dU,
  0xbd1877243d1844c5U, 0xbc9b3b373d0c6317U, 0x3ca8df0fbcd6eb9bU, 0x3d2d6361bcd85bc0U,
  0x3df97694bd8a9e7fU, 0xbd78fab33cfe2c45U, 0xbd6c8950bd4439b8U, 0xbd4257efbd26b18fU,
  0xbcd038c03d5c39f4U, 0xbdbcab91bd3ba24cU, 0xbd165260bd37166eU, 0xbbaee482bd6dc60dU,
  0x3dbbd959bd92887aU, 0x3c7ce203bd2ff286U, 0xbd78a75a395d4c90U, 0x3b10ac36bce8e608U,
  0xbb8977033d993308U, 0xbc45ae283b4402c4U, 0x3d3fa22f3d8b707aU, 0x3bfdf2253bd30935U,
  0x3e44ec00bda39228U, 0xbd7bd754bc9367baU, 0xbb39f6353db1a574U, 0xbc396ca3bcfe9fc3U,
  0xbc34bcf6bd4453fcU, 0x3d1069dbbd7cb1a5U, 0x3d0cfd43bc8ee706U, 0x3d6754c43d2dc619U,
  0x3d75efbcbd669416U, 0xbc8a3ce43daf7b2cU, 0x3c9ce60b3dc0a396U, 0x3b35516bbd290421U,
  0x3cb0c83f3cc85db7U, 0xbc836caa3d636939U, 0x3d9f1fc8bcdb6441U, 0xbc4a42fb3a93d896U,
  0x3ce321e1bc2f46c0U, 0xbc27955a3d3b222aU, 0x3d02dd4dbc85ecb4U, 0x3d07c9eeba125226U,
  0xbd4eb56e3cef443dU, 0x3b1dc4673d30e97dU, 0x3c5e88cb3d8462ccU, 0x3d8d12873c1f279fU,
  0xbd0da9293d180d8bU, 0x3d52e03e3bddb051U, 0x3d8673453dbd0afdU, 0x3da789a2bc3e9785U,
  0x3cd294723c9ef8f4U, 0x3dae7dcf3b2e53c9U, 0xbce717b53c1507c8U, 0x3ccb1796bc3ad39aU,
  0xbd59ea333db4eeb4U, 0xbd1b1b80bc5ab5bfU, 0x3d9ed00fbc5816c4U, 0x3d2e486a3d511be5U,
  0xbd1e8b9a39edf038U, 0x3d54b0353d5c794aU, 0x3d725c3c3d437aa0U, 0x3d6f96c53d630541U,
  0x3df0d50c3d28b32aU, 0x3c97212b3b12a2e9U, 0x3c2dfe543ce81533U, 0x3d6a888e3d8ecf79U,
  0xbd19176ebc9645aaU, 0x3d2d45cf3cd0e33aU, 0x3c7dcad43d6751e9U, 0xbd127eb6bd5f2687U,
  0x3e3b3c423d9d1295U, 0xbceb0a73bb97d64bU, 0xbd64b93bbd8b2467U, 0xbbde570b3c882db0U,
  0xbc04de45bcd21fe7U, 0xbd13c47fbd614df2U, 0xbd432d993c634261U, 0xbda0ba38bc7eddaaU,
  0x3d7f4b363daf4216U, 0xbd7b33febd88f3a1U, 0xbdc04158be0998a7U, 0xbd30ccdfbd2cdb2cU,
  0x3dd08e553c459396U, 0xbbea6c92bdfb2782U, 0xbe100960bc084981U, 0xbdc5f723bd874a6dU,
  0x3da1edd93df2dd39U, 0xbd88e56cbdfcd706U, 0xbde90d59be10c68fU, 0xbd8a55ccbd6e1eacU,
  0xbd8c8f21bdbab061U, 0xbdcde358bd879b76U, 0xbda3403dbd28650eU, 0xbd949c9bbd580030U,
  0x3d8d473ebd147cfaU, 0xbd9040a2be0835abU, 0xbd0920f83c909d6dU, 0xbd71d5343d79a22dU,
  0x3d0872183b734dddU, 0x3d83a3efbd50c020U, 0xbb58be663cb9e9c1U, 0xbd23a6aebd094e0eU,
  0x3ddd079fbcf8bd49U, 0xbcb8c817bbcbf8f4U, 0xbc1cce0ebd862cbcU, 0xbd999ce8bd7efc99U,
  0x3d61f931bdb23d24U, 0xbd85874dbd2562c2U, 0xbcf1ed8ebc0f65d4U, 0xbcdb93ecbcc856a9U,
  0x3d30ce15bc0028e8U, 0x3d2ae1303d2e9f84U, 0xbd74bb9b3c27d20dU, 0x3d5da2a73cad5c99U,
  0xbd018d2bbd2643caU, 0x3b935fe73ce8627dU, 0xbbe252a03cda9962U, 0xbcd084a83d540f7fU,
  0x3c221ca73d08496bU, 0xbced5e3e3d4fb791U, 0xbc32954cbcff8ca6U, 0xbc6c30d4bcb30236U,
  0xbcbb8b0c3d01bac7U, 0x3bb84a943c5925c4U, 0x3d81c9663d5e8b2cU, 0x3cd537fcbcfcc0dcU,
  0xbd1553473cede836U, 0x3d6975c03d7fd6abU, 0xbd05b4763d24569eU, 0x3aaa340a3cd6c551U,
  0xbd80ebd33d818776U, 0x3c385fb13d90bdc4U, 0xbd132fc13c02b691U, 0x3cae14a2bcb74aebU,
  0xbd35228abd47ff74U, 0x3c869a743d6db029U, 0xbc493a0e3d0f60f8U, 0xbd0277933d2f28a0U,
  0x3d7e3a46bb23a047U, 0x3d3a18873d8da4caU, 0x3ca5e187bc2b156eU, 0x3d46212bbca8d03aU,
  0x3e1a9cd13bc580c8U, 0x3cf895a93d4e281fU, 0xbd28c5f8bd82057bU, 0xbc01ecb93d4d52acU,
  0x3d3b5edebccdda9aU, 0x3d088589bcfbaa70U, 0x3d20eca6bc85f05aU, 0x3d37a46abd3af518U,
  0x3e28f23d3c9faa28U, 0xbd5b4fecbbb06a91U, 0xbce311283caccff0U, 0xbd4b6ebdbd873433U,
  0x3bb5d9e73cc6f731U, 0xbabc16023ce0d94eU, 0x3c9434913cf53befU, 0xbd92c5dbbd7b3b8cU,
  0x3d5b7f11bcf092f5U, 0xbd851d373c718ddcU, 0x3992aff0bd8b8b95U, 0x3d669919bdb023d6U,
  0x3cf6fde63cd1ab3cU, 0xbcf333e9bdca1551U, 0xbd3b16c1bd65cfcdU, 0xbcc99322bc12feaaU,
  0x3bd3e3423decad85U, 0xbd3ba2543d02cb34U, 0xbda75d2bbdab39fdU, 0xbd38459bbd0f02d5U,
  0x3dd9ba17bc99f0feU, 0xbd9fd7e7bd6fbc54U, 0xbe075190bd9f7617U, 0xbdc09d31bd9c5b4dU,
  0x3dd920ed3d9afe86U, 0xbbb847aebd8f09c2U, 0x3bb312cb3c3060acU, 0xbd0bb100bd14ed10U,
  0x3d837efabdf03a0bU, 0x3b9b61f4bcff99b4U, 0xbd0c21523d2c44afU, 0xbd25043c3ce08fe0U,
  0x3d8cf0e93d2c88b5U, 0x3c4418b9bcb54261U, 0xbd21c129ba0383e1U, 0x3cd232f9bd211fd1U,
  0xbd212bd5b9e212ceU, 0x3cd10bf83d0b99beU, 0xbc4083d6bd9532afU, 0x3caf08ec3cd6e069U,
  0x3d3972e33da9d2b4U, 0x3c1e04b73ce16befU, 0xbd2cf6e0bd02fb11U, 0x3c0aa2a53d2a9757U,
  0x3d3c1bf1bc2c920eU, 0x39b490363cbb28f3U, 0xbc0b14c8bd174e87U, 0x3ce8225f391b02bbU,
  0x3e024ca83cde1fdcU, 0x3d1b65253ba9ac94U, 0xbd3e944cbc6a3ddeU, 0xbd831ec83a02546fU,
  0x3d8139af3d3a6e6dU, 0xbbaf176f3d04ef25U, 0x3c1e26debd2a0d53U, 0xbd3f52643d6131daU,
  0xbdc16f873dd92108U, 0x3bdea35dbc9fc70eU, 0xbd2e2b733d851105U, 0x3d8ef81ebd5b6a8bU,
  0xb9b024d63d5d79b9U, 0xbd1df42abd065508U, 0x3c796bdebc5ba16aU, 0x3d57d26fbd0a18abU,
  0x3dd2da303addde3eU, 0x3c936283bcae24b5U, 0x3c8be3783d795fb1U, 0x3d886f093d1bfaa2U,
  0xbcc3135e3d775bdfU, 0x3d2fb8eebd2ff327U, 0x3c7817b3bd0ab613U, 0x3d69d7e63d07b1e4U,
  0x3d2140953bb43415U, 0xbd24daafbcd6cef5U, 0xbcf17289bb932f5bU, 0x3d0c358f3ae1e034U,
  0x3dbbe5fbbcca3a70U, 0xbd3194fbbcf77b42U, 0x3ca33a81bd4a0acfU, 0x3d12b333bce1537eU,
  0x3be71cf43dac71e1U, 0xbcf48e8fbd7e2577U, 0x3cf1298fbd53df7dU, 0x399a065bbd20f8cfU,
  0x3cd3ded93d3346b4U, 0xbd98f729bcb64a56U, 0x3c8aa226bbdc66e0U, 0xbcbcf7fabd1501f3U,
  0x3ddc55f03c8df628U, 0x3d78a5df3c96bb3cU, 0x3b71db6a3c12a5f1U, 0x3cede36ebd82aebeU,
  0x3cc4d0ee3c70e10dU, 0xbc1eebdcbd1cf07dU, 0xbd772590bd080b7dU, 0xbd48a274bd12bc8dU,
  0x3d2a56cbbc365424U, 0x3d38ed0abd682553U, 0x3d7e2652bc5e58e9U, 0x3c762f22bb06578fU,
  0x3cae91ebbd287f1cU, 0xbd15a11dbd7542ecU, 0xbda2684abcb321d8U, 0x3cdb1666bd6a7972U,
  0x3db05c553d92f3fcU, 0xbc826c06bc9b366cU, 0xbdb905883d76fd83U, 0xbb2cff40bd568271U,
  0x3da5d937bd332762U, 0xbda58ecabdc51e1dU, 0x3c7982e4bd7e90d5U, 0xbc9a3dfd3d7e398aU,
  0xbd1abe353de2e287U, 0x3ccc2b0c3cf68beeU, 0x3d55bff83c21dbe9U, 0xbbfc72eabd294f7fU,
  0xbda2973f3be19b0fU, 0x3d25cee3bb28cdf8U, 0x3d49ce2d3d64e6caU, 0xbb31408d3c074544U,
  0x3da37a6fbd008e72U, 0x3cf7deabbd542d9bU, 0x3d0cd0563b1300b7U, 0xbd3fda2e3d2a9ed5U,
  0x3d565f68bd8fb9f7U, 0x3c3a11bf3ca0b11bU, 0x3d6334b63cef24baU, 0xbd340ef83acf30aeU,
  0x3d967468bd3e7007U, 0xbd2b1bb1bd1f581dU, 0x3c782c3b3d271030U, 0xbcfc40adbd4580ecU,
  0x3d2af33f3bb03f2dU, 0x3ce97d373c2262ccU, 0xbc48ada73d642d33U, 0x3d0b2072bd09b4e2U,
  0xbd0158613da79b87U, 0x3d0fa6cd3da4e132U, 0x3d622cddbcc6e3dbU, 0x3d08fef63cd2f100U,
  0xbc6e316b3d8b9a7eU, 0x3c3771c23bf80a6eU, 0x3d0878263ce2bb7aU, 0x3cbb60b53c211febU,
  0x3cb2a3c8bc1e5404U, 0xbbcca935bbd0c9e4U, 0x3d1d34f53d03a8eeU, 0x3d3584563cec3b58U,
  0x3cf8805e3d79f83bU, 0xbc3376353c9ab3ceU, 0x3d4354c93b1abba1U, 0x3a4429a0bd5898e9U,
  0x3d5f49593ca8eea8U, 0x3d44e9c1bcaa643cU, 0x3ce98ffdbccf2edbU, 0x3bdcf66e3cd3d4feU,
  0x3c91017b3d11f2f7U, 0x3aab737d3d117e9bU, 0xbd2e052cbd6a6dcdU, 0x3d0710563b42701fU,
  0xbae6bb1c3df122e1U, 0x3d29cd073d52ef47U, 0x3c3ee95a3d16cea2U, 0x3d19f45fbc956ea9U,
  0x3c55f30b3d5afc86U, 0x3c1ba5ed3d156dd7U, 0xbd8c9de5bcd24560U, 0xbcd4baa9bd29e7bcU,
  0x3dd5c3a33de125f3U, 0x3cf451dbbd5f08c2U, 0x3d0d1e3d3d1161fbU, 0xbd241dfabcc4a958U,
  0x3d66ea27bd123f9dU, 0xbd9303bc3c97d50bU, 0xbd8e6ce4bd101852U, 0x3c10c1cc3ce7e084U,
  0x3ddc2d993dbe8c76U, 0xbd3353b03c1577caU, 0xbc9d8a4d3d29a902U, 0x3d7db6593bf911fdU,
  0xbc51edf6bc97fe90U, 0x3b450963bd505351U, 0xbd49bdd9bcddeb38U, 0xbd34bb1abbde8f53U,
  0x3d5ade923d36a85dU, 0x3d5658263d5b99ecU, 0xbd4d4a593d215654U, 0xbc87840cbca78794U,
  0x3d96d9ecbd90185dU, 0xbd82477dbd37adffU, 0xbce2e9cfbd3f7223U, 0xbccc9655bd62952aU,
  0xbdc52f833dd506adU, 0x3da0fe92bc3f007dU, 0x3c9b007a3c50e10fU, 0xbb43364c3d6cafeeU,
  0x3d420d9e3d477083U, 0xbcb1f17d3da08caaU, 0xbd324035bbf508e4U, 0x3c8094023c0a043eU,
  0x3e0bd5c73c3788b5U, 0x3d29df28bd86c04dU, 0xbd0e8e57bc864b83U, 0xbc8bb53fbceb11ccU,
  0x3da0e79c3c4f0d2fU, 0xbd0e5c7cbcdd6401U, 0x3cecf6e23d3b783fU, 0xbc9a2421bc8ac0e3U,
  0x3cbf5d9a3dc572e6U, 0x3bc0aad5bd690044U, 0xbd2b0b6ebc762efaU, 0xbcf6c357bb3a1598U,
  0xbda5fabebd01540fU, 0xbc9578623d0704fdU, 0x3d6412e13c98be27U, 0x3cf67e6abca74922U,
  0x3d14ce9dbcadb8dcU, 0x3bf89ccc3d0e7a4cU, 0x3c2a625cbd481c7bU, 0x3c89b8c03b70e2dfU,
  0xbd5ab11ebd22cdffU, 0xbc73f932bd40e72cU, 0x3d51b405bce33170U, 0x3d0eeb5dbd13c99dU,
  0x3d8acc74bcd1b063U, 0x3d0b78113acef8a0U, 0x3d11c8713d37d54aU, 0x3cb8daaebbbbb87eU,
  0xbd81dabcbd76447dU, 0xbc0e056c3c7d6e3cU, 0x3d349bf9bd05ce35U, 0xbd2cdd19bd449bd5U,
  0x3d01fa3ebc4c12c4U, 0x3c8180123ca0badcU, 0x3d4c852ebd3c7d5fU, 0x3d265904bd447de0U,
  0x3d0f24c7bca97a20U, 0xbb03aa8f3d511694U, 0x3cb06bc23cd8cf26U, 0xbd0f65203d5dd0b7U,
  0x3c8034713d1de34bU, 0x3bac0147bcacdc43U, 0x3d508e0fbd2d08cdU, 0x3cccd0443d29fa66U,
  0x3dc0d4793c55e619U, 0xb9eba262bcb6470aU, 0xbb64e3ed3bb38ab5U, 0x3d9aeb7f3d8f7cf5U,
  0x3d68dae63dd15130U, 0x3bdbedc7bc6285efU, 0x3d9de752bd935680U, 0x3c4bf0c93bd56063U,
  0x3d4b3df53d50cefbU, 0xbd37cdae3d5ee734U, 0xbd5634413d26cfc1U, 0x3d34f5303d75dd41U,
  0x3d18e51a3d8f5ae0U, 0x3d103acdbd3671cdU, 0x3d175cd8b8ab6af8U, 0xbb568a2fbd03221fU,
  0x3dd199243d72f5e7U, 0x3d7be44dbd20bc96U, 0xbd431c6abbbf575eU, 0xbccb71a43ce81355U,
  0xbc8a79be3dca3f78U, 0x3d0ee9a23c22a211U, 0x3ce879193db2b7fbU, 0x3c8b95f13bd948f9U,
  0x3be3a1b53d3f2d7aU, 0xbd0065343d009b1dU, 0x3b5d6386bd879ba6U, 0x3dc5c6873d4270a3U,
  0xbdb2505f3ac565afU, 0xbcd6cabd3d7d5997U, 0x3d034ccebc07a03fU, 0x3d54ef9f3d844fd7U,
  0xbd0fd3473c276e6bU, 0x3ca32b71bc4fd577U, 0x3ab6f760bc18c0d4U, 0xbca82dc5bc9eb3a8U,
  0x3e0a6bb93c31fe7dU, 0xbd3b2cbe3c1b1362U, 0x3d2d06bcbd3e9c7aU, 0x3d32b4e13d3f4de7U,
  0x3d17808a3ca23098U, 0xbd38590ebd497013U, 0x3d7504d9bd49de42U, 0xbd5720513d9a7534U,
  0xbd403e983d5098d1U, 0xbb8db870bc89825eU, 0x3d55368d3d800b9fU, 0x3d39c054bb82e3bfU,
  0xbd5b629f3c3da1bfU, 0xbd97b6ea3bfcec76U, 0x3d2621a13d58e049U, 0x3c7062b6bd5b9df6U,
  0x3db42dda3dad1dfbU, 0xbc86e40cbd31afc8U, 0xbd2e10f63ce9003aU, 0x3d31b5173d4a0832U,
  0xbd6f7a32bd29a941U, 0xbbd8220b3b133f15U, 0xbd88abc93c6a0b3dU, 0x3d2683513ca69d16U,
  0x3e125607bddb8022U, 0xbcb43965bd70aabfU, 0x3a72c8b7bd2d830bU, 0x3c7e1be13cea9636U,
  0x3c87b127bcb4f971U, 0x3d5164f8bd8336c7U, 0x3d1714793d09e872U, 0xbd69eb62bb95bcb3U,
  0xbdee71d4bc787117U, 0x3cc9c8d33d369cdeU, 0x3d51a58dbd0552c4U, 0xbd0db2e93c246ea8U,
  0x3d06a3abbcf3a2f1U, 0x3ce493ff3d03693cU, 0x3d4d0d1e3d8b763bU, 0x3bcc044b3c395a11U,
  0x3cd076ee3dd5e0dbU, 0x3c9d084b3c56b11cU, 0xbb93839f3cd6a109U, 0x3dbf38753d8a361dU,
  0xbdbe7e7d3d8841c4U, 0x3a3a54433c7c92bfU, 0x3cbe3b993d9db1f0U, 0xbb4921643d6730e1U,
  0x3c7f347bbb8fafa1U, 0xbd1c9de03d8ad88aU, 0x3d1e1edc3d18e5dcU, 0x3c5768083d01154fU,
  0x3d2420143d404ecfU, 0x3d86ad543d3a9265U, 0x3d69fe793b8a87eeU, 0x3da8cc2abcc37e3fU,
  0x3d8707cbbdc0f9f6U, 0xbcdc2e9b3c844f9cU, 0x3d98dcda3d8a5aa4U, 0xbc2b750e3da29940U,
  0x3d37ba693acac5cbU, 0xbc090645bcffcc6eU, 0x3d4b5bbd3bdda964U, 0x3b3d067cbcf44f33U,
  0xbc9ec5afbbe3ab0aU, 0xbcde57aabba2918dU, 0xbc446e20bd291697U, 0xbcf6eeb0bb5b5f6fU,
  0x3d8c9a973d620a2fU, 0x3cc267e93cb69e91U, 0xbc4066a73c208905U, 0xbb8ac26e3d256bcaU,
  0x3d1886df3d01f6bcU, 0x3b2bbd453c87873dU, 0x3cef353d3d842b27U, 0xbbc699d3bca0fa1bU,
  0xbba777c63cbe987fU, 0x3d2865a83c76e009U, 0x3d9d06ab3ca5c1d1U, 0x3cfc3b493c670a95U,
  0x3d85a7d4bd251d02U, 0x3d55e9c2bcdf07a5U, 0xbd149c763c9aab6fU, 0xbceb7613bc732313U,
  0x3cee794dbc350331U, 0xbcb4baaf3c670f55U, 0xbc3e332dbd13a33aU, 0xbcb8c29e3c66e5e9U,
  0xbcc1da753e00a4feU, 0x3d8a26f03db68d87U, 0x3d9e7e213b2aad2dU, 0x385c92b43d53450cU,
  0x3c6232013dbde8a3U, 0x3c85f3ec3d9be0d2U, 0x3cacfb063cd2442bU, 0x3d076d38bd531d8fU,
  0x3db9ee4c3cb619c9U, 0x3d4cc3c3bdb4caf7U, 0x3b2ce3d3bda3803dU, 0xbc9f782fbb3f313eU,
  0xbcdbd058bcb638aeU, 0xb988494abd1530f2U, 0xbd84b890bd620239U, 0xbc89f7fa3d3fe640U,
  0x3c58cb39bd34c5c2U, 0x3d0ee38fbb750af5U, 0x3d03caa73d3cc3f0U, 0x3b68e442bd2e3a9cU,
  0x3ccf0b99bd04560dU, 0x3bc53ed3bcd4d938U, 0x3d37c8eabc0c6ae3U, 0x3d0f8fcbbd3fa5e9U,
  0xbe3beb363d0e14c4U, 0x3d839074bd49eec6U, 0x3c52f76b3d537ef0U, 0x3d4c1102bd267407U,
  0x3d5c758d3d3c497aU, 0x3b4838b53d6dfca3U, 0xbd11c55d3d6f22c3U, 0xbb09e04a3d1e2b5bU,
  0xbd0332113db1f01fU, 0x3d8453213cb718fdU, 0x3cf503203d490aedU, 0x3d280019bd3f7561U,
  0xbd22f4d23dbab6fcU, 0xbd86057c3d484613U, 0x3c106d953d55779cU, 0xbca6ec9bbca1a81eU,
  0x3e1224983b1ded08U, 0x3d5bbc453cd04948U, 0x39b2203abcb5b289U, 0x3cc24f753d08f951U,
  0xbcf305aa3c1d36afU, 0x3ce5bebebd345cb4U, 0xbd357850bd2d0980U, 0xbd363d6d3d2a1c09U,
  0x3dfc9cedbd392701U, 0xbcb4f3b03cbc2494U, 0x3be9590a3d9b4041U, 0x3a3683d53cc4561dU,
  0x3d3ab60d3cd0c816U, 0x3d5c4d843d063ab5U, 0x3c2869603d042430U, 0x3d2ba27cbcf04b60U,
  0x3cceeb5dbb636c6aU, 0x3c1b844d3d4764f7U, 0xbcaa06f8bd8ac32eU, 0x3c8ec145bcba7255U,
  0xbc6d4b48bd3429caU, 0xbcdd1fe939fb6ba6U, 0xbd1744fcbd76d9caU, 0xbc63f3bf3ce644efU,
  0x3d645611bd48c5bbU, 0xbd81c7993d54e942U, 0x3d1360963cf1a5c8U, 0x3bd628663cdffbaaU,
  0xbd8bcd523d518ad7U, 0x3b73748dbd0f3782U, 0xbd06ee9cbcb06568U, 0xbd22ec423d7aaf67U,
  0xbdbdb3153d92c503U, 0x3d618c12bc3bf3dfU, 0x3d7d21193d92d313U, 0x3c6a70723da1d1daU,
  0xbd0e900e3d053832U, 0x3c3eeca5bc5be23bU, 0x3c19d7e03d061455U, 0xbcab70273bac80acU,
  0x3d4fdd1abd14a017U, 0x3d0f34bc3d669dedU, 0xbd2ecf00bc6cbc2cU, 0x3be99e3c3d90a839U,
  0x3c0ae57dbc3e00efU, 0xbcc518c83d5116fcU, 0xbd11e49ebce561edU, 0x3cff10fa3d65985fU,
  0x3d560b0abd07ba4dU, 0x3c933373bd2dc586U, 0xbcfb44553c29678fU, 0x3ca55863ba308732U,
  0xbc0e507bbcdbc8c5U, 0xbc60ef943cf35034U, 0xbd07ff32bc83b81fU, 0xbd1fa3ab3d3fb881U,
  0x3dc1eca5bbcddb2fU, 0xbcae666f3d75f9e9U, 0xbd4b3eda3d0219efU, 0xbcb5c0e7bd03823bU,
  0xbd6b4bc43cd1b826U, 0x3d9313b2bc6b8366U, 0x3c5682113ce8a537U, 0xbc1b690f3c751e41U,
  0xbe2655663d23c4f2U, 0xbd2612b03cf59da2U, 0xbc76900f3d6ab9cbU, 0x3c7402aabcae5b54U,
  0x3b707fa4ba999f50U, 0x3d57f0623d086d64U, 0xbcc20812bbbf5ad0U, 0x3d1b2241bd0268faU,
  0x3da02d37bd33901dU, 0xbceae191bd1cc27fU, 0xbb38bd633cb177dbU, 0xbd112f933cd943b9U,
  0xb8ee83a0bcfc9624U, 0x3d4e0508bd08aa21U, 0xbd58e5a7bd09aab4U, 0xbd2bfd81bd1f9ccdU,
  0x3e2504713d206bceU, 0xbc17485f3a9dd606U, 0xbc45f552bd3a71f0U, 0x3b724269bce2f746U,
  0x3cac3e773cb1227fU, 0x3d1a3e00bca1ccf2U, 0x3d116f9ebb8baddbU, 0xbd82b8e53cf50fb4U,
  0xba42878b3e15bd06U, 0x3c3162bebd16fb51U, 0xbb7a10553c6044b1U, 0x3a306ad93d39c9c9U,
  0x3ca5d0db3d4fa101U, 0x3bf190323c8f91cbU, 0xbc8d6ecf3d10f913U, 0x3b5943d8bca812c5U,
  0xbda349a43da05b4fU, 0xbcfb60de3d4d2eebU, 0xbd6422883c3346cdU, 0x3c9b77e8bcdd904dU,
  0xbe0246e1bd99155cU, 0xbd71fb8ebd7741f2U, 0x3d4fb8cdbd2d8a9aU, 0xbc586dccbc6565a9U,
  0xbd4738d6bdab6fc1U, 0xbc104f713d1ce460U, 0x3d53c1b93db46564U, 0xbd0ed8febd565893U,
  0x3d3844763bb6e4e9U, 0xbd41c5903b2a44dfU, 0x3d33d00fbc36f445U, 0x3d9923acbc0bacd1U,
  0xbdccaa54bd32e143U, 0x3cabd24bbcd52195U, 0x3c737188bd0a9495U, 0xbc3b04103cde77daU,
  0x397478833a8d1302U, 0x3d8281153ace05dbU, 0x3d8b93adbc934c2cU, 0x3c2becc23d897ec4U,
  0xbc8852febbc73608U, 0xbd1371c8bc0e61c3U, 0x3c4947633c7c081cU, 0xbd1f62f63d7fd15cU,
  0x3bc1875fbc5fd9e1U, 0x3cd2c0cabc5d7547U, 0x3d6a26c9bd8ab870U, 0x3d27cdb63d2321c1U,
  0xbd07211b3a70a918U, 0x3c3772d0bc73849aU, 0x3d937bf1bcc17d92U, 0xbc057c303cba4c6dU,
  0x3c7f3d123d85ac80U, 0x3d81bb23bc2cc30dU, 0x3d3127533c9a8c44U, 0x39e83c74bb1d781cU,
  0xbcc7beb43d07b2beU, 0x3d518b57bd817c63U, 0xbd46e9b7bc6f7fd9U, 0xbd4b16ac3cf3c3d2U,
  0xbcba3b05bda1fa04U, 0xbc93f1f9bd3f44b4U, 0x3bf96e9e3d037f09U, 0xbc548aa1bc116458U,
  0xbdc7af25bb85940dU, 0xbc650f1bbc21994eU, 0x3ca3d6113ccf96f7U, 0xbc5cf7013a8434b8U,
  0xbd2ce2f73d4eca70U, 0xbc56e41cb98da080U, 0xbd443367bd26b11dU, 0xbd3af7c03d128f04U,
  0xbd20b852bd291773U, 0x3d3dc1fa3c938dd4U, 0x3cc0245f3d34baffU, 0xbd5169ed3d6a6ca8U,
  0x3d259b1cbcf23a3dU, 0xbcc420083d3666e0U, 0x3d738d923cbe5c7bU, 0x3d5a7b653d6c3d6cU,
  0x3d7dc8f53ba2e166U, 0xbd0c2f21bd4f0a3eU, 0x3d0a3edf3d59b028U, 0xb9769db23c8da635U,
  0x3d40daaebcb3b46eU, 0x3d4d74473bbc19ecU, 0x3db207523d0eb976U, 0xbb4289073c50c1b1U,
  0x3b6389cb3c3acd7aU, 0x3d650a9e3c01bcb7U, 0x3c6f5cb93d9549e2U, 0x3d441a12bafd2acbU,
  0xbceab9ad3d8573c8U, 0x3b1140953bf92d84U, 0xbd4bb3493d1ebd2bU, 0x3ce99f823cc9f504U,
  0x3d761b323c5ea792U, 0xbce463b23d86fae6U, 0xbd2980323b168281U, 0xbd15d97fbdb2ae02U,
  0xbddd0e15bdcbcf84U, 0x3c7832acbd9c05c1U, 0xbd960959bc336e5aU, 0x3c696b11bd7f06d8U,
  0xbe39dfd63b4f3c85U, 0xbd8dfa81bdc4fe9bU, 0xbd81a1083d4e4820U, 0x3d841b00bc60febdU,
  0xbcdc4256bd165443U, 0x3cbd8423bc9040daU, 0x3c0ad6873c628441U, 0xbc94b4e2bc26aa43U,
  0xbc0e1b373dafd146U, 0x3d282732bc61f22dU, 0x3d1ca9003d1d86e3U, 0xbc3631ae3cd16f8cU,
  0xbd28677a3d565019U, 0x3d1755843bc4cab8U, 0x3c0ffe973cddb4afU, 0x3d8a7bbe3b7edf51U,
  0x3d0673733b825b6aU, 0x3d84db2d3c82e48aU, 0xbbb569b33ae03958U, 0x3ce0ef303d9e3e53U,
  0xbbc382cabd5d9249U, 0x3d8bf769bd323e75U, 0x3c4ef691bd38b743U, 0x3d653e973cb90296U,
  0x3c1ea238bc82ba3dU, 0x3ba3dcfc3bef177bU, 0x3d8b5afabc28b6a0U, 0x3d678f6d3db53ca6U,
  0x3da75ac93d896b62U, 0x3d9ccd063cc2810aU, 0xbcca91123d82cfbcU, 0x3d439517bd134efaU,
  0xbcaa6302bc9b5f25U, 0x3cc6c1823c2ad2a4U, 0xbd3527543d171376U, 0x3c048bc23c571c00U,
  0xbd12192e3d340bc0U, 0xbc170acebc615563U, 0xbccf5c19bb2e01f1U, 0x3bcc186f3c8c59a1U,
  0x3de8574dbc0988c3U, 0xbc515c6b3d846d96U, 0xbd192f92bbd4d490U, 0xbb75f3063c40f45eU,
  0x3d672b3c39436beaU, 0x3ce466ec3c565983U, 0x3d60c3dbbd424401U, 0x3cac16a03d1f6215U,
  0x3d1d43793c6a7d30U, 0x3b9e1ad7bca5f1a8U, 0xbc7279533d3eda37U, 0x3c86c6653d21425aU,
  0x3db6da7bbd4bd91aU, 0xbcf8a90fbcbea22fU, 0xbc66b9adbb6a3276U, 0x3d4990813dabd63bU,
  0xbd370f363e1d0c9aU, 0x3d90c8123c5fa443U, 0x3d9d3b78bd0d90f1U, 0x3d98cf3b3d88e17fU,
  0x3d4037663be98b4eU, 0x3d8272b03cb84753U, 0xbbfb401c3d9d15f0U, 0x3cd768603d7aa0c9U,
  0x3d65b8b23d8b7356U, 0x3d20915fbc2fee30U, 0x3d33954b3c774542U, 0x3d372113bd58bf65U,
  0xbb2af5fbbcc00b9cU, 0xbd4464453d00f9a8U, 0xbca8fa063d5e5b1bU, 0xbbc5619ebcab7566U,
  0x3dcc1a243d80607eU, 0x3d16c67e3ce4de11U, 0x3d90c34e3cb08831U, 0x3db3c449bc08f153U,
  0x3c4832343d9a43d4U, 0xbc564e7f3cbc7fb3U, 0xbccff321bc74b71bU, 0xbd2c46cd3c40c8e8U,
  0x3b893f33bcae3bb1U, 0x3d7ea8d3bc8a7d32U, 0x3cf86660bc8fd99bU, 0x3ce3d8c43d83c542U,
  0xbd73cc943d750729U, 0x3c6987ee3cd8aa60U, 0x3d6e2c75bc6e407aU, 0x3d1141b23c6f0d98U,
  0x3d16e9da3bdd522bU, 0x3c14e7173d0dbb82U, 0xbd33741d3da058aaU, 0xbcbb9fd6bc7b61f6U,
  0xbd8d84663d849b71U, 0x3bd36455bcec9c7fU, 0xbd253fa73b10cc02U, 0xbb3b5a6abcbb9bafU,
  0x3cb74c26bbaf9ae0U, 0x3d10f23e3b4a3433U, 0xbbd1d8693d73e3e4U, 0xbcb9773bbc4ade62U,
  0xbdac49d73d52f738U, 0xbd237975bc747e8eU, 0x3cb62e6f3d3c45b8U, 0x3d33d63d3d125885U,
  0x3d287efcbd2bc73aU, 0xbd0c11bebabdc280U, 0xbd3b2c1b3db7229cU, 0x3d62591bbc82e907U,
  0xbd48ea713cd1aaf4U, 0xbc2e4f213d1f2499U, 0x3daae354bca9269dU, 0x3d2d6a5d3d4b1c52U,
  0xbd243818be317465U, 0x3d459a803dae5e20U, 0x3d1ee8de3daa0345U, 0x3d6f93fc3d463380U,
  0xbd3966d43d2e86ccU, 0x3cf188bc3be44b8cU, 0x3d4fde1e3cf828dfU, 0x3da1dfd0bbb7fbd2U,
  0xbcf6a4f0bd65fd10U, 0xbb3c2782bce5b995U, 0xbcc057653d2fb540U, 0xbc9d10a33cbb6169U,
  0xbdab30b13cc83144U, 0xbd45bd873d979532U, 0x3d9f74913d8ea54fU, 0x3dca28f6bcbb5d45U,
  0x3a4edc8bbd741befU, 0x3d6cb8193cef2b6bU, 0xbc3bfc553db47843U, 0xbd8259b23d8433cfU,
  0x3c8d8193bcce0bb7U, 0x3cd7b20abc1bb5fcU, 0x3d6f2949bcdc72f0U, 0xbd2177343d577024U,
  0x3d0b5a4abd38b239U, 0x3b9a12ffbd2cd7ebU, 0xbccdd9e33d600879U, 0xba21f7223cd25c21U,
  0x3b5c37a13cdbca41U, 0x3cb75d85bd82f8faU, 0xbd179b403d63fe6eU, 0x3d084eb13d51ec93U,
  0x3c68770ebd19185aU, 0x3cd984a23ca746c4U, 0x3cb5587b3d3bf7abU, 0xbbfe5ab13c9aead9U,
  0x3cddad953d0bf95eU, 0xbce9b5883c209cf7U, 0x3cc12a0abd07743fU, 0x3d2c2769bd2ae5ebU,
  0xb8ff2cb0bd3c6847U, 0xbc8eebc7bcbd92fcU, 0x3d4db1cdbcd3a166U, 0xbd7d930c3d3a808fU,
  0xbbbedf563ce9c29bU, 0x3d3b38a9bd26527dU, 0x3d5b60f43cb62b82U, 0x3da310ac3c68174fU,
  0xbc9c3eefbcdee684U, 0x3d6ad91a3d551a5fU, 0xbaf59ae7bd38d421U, 0xbbeda02b3d060395U,
  0xbce12ae33d3db75dU, 0x3c7c84573cdca0f5U, 0xbd02477d3cf23e77U, 0x3d0f45223d3091c9U,
  0xbbe3900bbd6d258fU, 0x3d6ba7c93d80033fU, 0xbcccfcbbbb4a3874U, 0xbcc5ca593d20f868U,
  0xbc2a089fbc6dfeccU, 0x3d2258903d0d2f2eU, 0xbd213e5d3d2c830bU, 0x3d4507763d2959beU,
  0x3cd95fd0bd4acd43U, 0xbae1e0063ccecdd4U, 0xbd7e184abd8d0725U, 0xbd39766abd2f3e6eU,
  0xbd2194a7bc791d2eU, 0x3d15a93c3cb51065U, 0xbd3779cabc95c3b2U, 0x3d49542ebcd615a0U,
  0xbcf1c17cbda1ad11U, 0xbd2370febd7096b2U, 0x3c47465cbd291d21U, 0x3d4910e1bd775562U,
  0xbcd5a109bcedbd99U, 0xbd7bf15abcd69aabU, 0x3ba9349e3d4d2b51U, 0xbd9bb9dabcd3a8c1U,
  0x3c7cae0fbd68f407U, 0xbd4c1458bd478d8cU, 0x3d32b546bd4c72daU, 0xbd3971b8bc907b3dU,
  0xbc1dbbcf3b8b1cc6U, 0x3c7c57d73d514feeU, 0x3ca21d6fbcab0ae4U, 0xbd675cb0bccbb1deU,
  0xbb1abb9a3cbe58e3U, 0xbc473ce9bd05967dU, 0xbc20a4643c16fae8U, 0x3d1400b33b431d81U,
  0xbd2395ea3c827a94U, 0xbc91e5eabd1b0931U, 0xbae8b68d3d19f324U, 0xbd9366ed3ce82e69U,
  0x3d3287c3bd4b8efdU, 0xbcb6fe25bd149169U, 0xbd4c7f1dbcfd1883U, 0xbce3fd58bc0c981aU,
  0x3c2e0245bd4f6ed6U, 0x3c49e9063bd716a8U, 0xbc8cbd5fbd691511U, 0xba55e912bc154832U,
  0x3bf15dedbcaa960eU, 0xbd422c86bd938024U, 0x3d4b4480bd889a07U, 0xbd2153fd3d108ff2U,
  0xbca4f879bd8fb1abU, 0xbcaead07bd730195U, 0xbd54e3c9bd7021e5U, 0xbcc0aa783cd060c8U,
  0xbc239a183d1b9201U, 0xbd362109bd58af9eU, 0x3d5ff4c7bca640d0U, 0x3b8b222f3c7b6707U,
  0x3d6b4dae3d4c8d12U, 0xbce92a5abbc30775U, 0xbc9cb7853cba6b07U, 0xbc15920f3d808bb6U,
  0x3ca5c6ddbd4b1dcbU, 0xbc9a3d673d5a3a97U, 0x3ce766283cb52eb3U, 0x3cc0e8a53d3fb7eeU,
  0xbcb37d93bc41a4b5U, 0x3bcc0c0c3b00ceddU, 0x3bf7d8a5bd0da74eU, 0x3d285e8e3cb45adfU,
  0xbd9d9a993d3f36e0U, 0x3ceceecf3d1ceaf8U, 0xbcb916e03b957d4aU, 0xbcb1b8563c8095e6U,
  0x3c2a4e1e3d149e6bU, 0xbc2482353c13c37eU, 0xbc33cdfdbc25df74U, 0xbccb9f343d2ec5feU,
  0x3cedf5fdbce3ec25U, 0x3cbaf191bd16bac0U, 0x3b1e2aafbc9af54cU, 0x3d230877bc3b5902U,
  0xbc88b8133c78a79aU, 0xbd206d8fbc4ef851U, 0xbd01ffed3d3ab2f0U, 0xbd1f01bfbd484650U,
  0x3dd52fda3d2246d2U, 0x3d2f6d793d4f379fU, 0xbd5bc1a4bc93c624U, 0xbd0698abbd2ba76dU,
  0x3d59be58bc075a6cU, 0x3c9dbd493d607ce0U, 0xbd018e453d002043U, 0xbd33fb7ebc181b3cU,
  0xbd9ab9633d4e004eU, 0xbc806c11bd520312U, 0xbd2f940abd1f256eU, 0xbd7af8eb3d5c6465U,
  0x3c94fb1abd0f15baU, 0x3d5cd4e4bd12a354U, 0xbc8c39ee3d5f0fa7U, 0xbd6167553d15ca28U,
  0xbda8f87a3de7da11U, 0x3d677ad83cc57d15U, 0xbd156f1fbcfeda1eU, 0x3cb1eba2bc4cd226U,
  0x3c66cf94bb61ec7eU, 0xbd448848bc9e0bdcU, 0x3c564cf6bd2f8bf2U, 0xbc92e6413d0f729aU,
  0xbbd929463cf3ed21U, 0xbd21a68b3cb9cf72U, 0x3cef3216bc1ba754U, 0xbaa556c8bd3f60b5U,
  0x3d2aaec73cbdcff7U, 0x3d377fbbbc08c1f1U, 0xbd13c0e3bcb7e8fdU, 0xbcd5afb9bc899eeeU,
  0x3c7512a13d14ce47U, 0x3cf39ea0bc00011cU, 0xbd1253d63c1b4f35U, 0xbd803e6bbd55b073U,
  0xbbbb91c0bd72f1a4U, 0xbbda6fd0bc74c5adU, 0x3c64c2153d5da9b5U, 0xbc6e3bd7bcf81a45U,
  0xbd4668bc3d5d7a7eU, 0x3c053e303ccfa878U, 0x3d253e3c3ce3b2aaU, 0x3cb44e88bc3ca848U,
  0x3abc36dbbbe71b28U, 0x3c7c409d3cc35578U, 0xbd3940853d49454dU, 0x3ca860203c8d7793U,
  0xbd5457a33d200d9aU, 0x3caf885fbc057d2aU, 0xbd2da9873cf5a1dfU, 0x3d6456893bdf109fU,
  0x3dafe747bd2f343fU, 0x3cdff82d3d24b80eU, 0x3c6ac81bbc7a7adfU, 0xbd17ed0a3cbe7a8fU,
  0xbdc303663daf59deU, 0xb939bf173d3b1eeaU, 0xbbb58fb4bcab5ca0U, 0xbcbba429bd1c5a5bU,
  0x3db173263d721ba5U, 0x3cfe49d63d09a7eaU, 0xbc0cb8383cccd99aU, 0xbd07bad7bc86243dU,
  0x3d2bdb713d91a64eU, 0xbd02903f3cf555c1U, 0xbcb8a49f3d1bcad5U, 0x3d2269c63c038286U,
  0xbc6172363d48b0b3U, 0xbd06c52e3d708e48U, 0x3d6f8f643cec73f6U, 0x3d955727bd501543U,
  0x3dd8501cbd86a9faU, 0x3d2016d6bb7b3759U, 0xbb936cae3c07ea6dU, 0xbc18c0763d6a58e0U,
  0xbd3364e53cfe263fU, 0x3d75fca2bc492e5eU, 0x3d384b543d12da3bU, 0xbd072949bc5ddcf2U,
  0x3d72f3e0bd99d8a3U, 0xbc1607acbb484df4U, 0xbd264e27bc39ad2dU, 0xbd3208023d154c6fU,
  0x3ba10c3fbd4a2e21U, 0xbbe3f0ec3d6c98ceU, 0xbd0868bebd07949aU, 0x3b1b96613cb6c01cU,
  0xbc9a2fb6bc999d4fU, 0xbd2ccb5bbd2e68ddU, 0xbc5a8c2d3d515a3eU, 0x3d486bc93d10bc9cU,
  0xbd96a096bbb005bbU, 0x3d2be85e3c609d1dU, 0xbca8de993d41523eU, 0x3d25c330bd1f9fdbU,
  0xbd75101f3d1537aaU, 0x3cad19f93b97c1b8U, 0xbd169dc53d8cc521U, 0xbcb3266bbc1bdac8U,
  0x3d8d493d3d8d0cdcU, 0xbb93ca8e3d150aa5U, 0xbd01306a3c12f04aU, 0xbc211b683d6c9c32U,
  0x3ce52c35bd1c124aU, 0x3d19f4cbbceee93fU, 0x3c2111443d321632U, 0x3d3599da3cda2469U,
  0x3c27facb3cef6ca5U, 0x3c8642353d6b4ee7U, 0xbd20b173bc02f37bU, 0xbcb7f8d53ca29503U,
  0x3b845b803d355ae9U, 0x3bbb7a663d482797U, 0xbb4e7f463a76fcddU, 0x3c8301473c84f524U,
  0xbcf50d72bd3fbf7dU, 0x3d775e10bd302231U, 0x3d32434abbabfb1fU, 0xbd632beebc04ab4dU,
  0x3cf461d93d767885U, 0x3d362f643c4d2c6cU, 0x3d10466cbca6a6bfU, 0xbc283440bd64df8aU,
  0xbcdb8dbf3be2ee99U, 0xbc2dd8793cefdef4U, 0x3cf810cf3c364250U, 0x3d196b263d27ffe9U,
  0xbbf5d958bcab6428U, 0x3d13c4103d4c11e4U, 0x3c2a39073d6e3bb9U, 0x3d6ac5bbbd108517U,
  0xbb802e633d0d21baU, 0xbcfc4e853d4af2d5U, 0xbc9430a1bcbd3074U, 0x3cbc8850bc343885U,
  0xbcdda3083d4e913fU, 0x3c61e03bbd0de96bU, 0x3c0b15863d592324U, 0xbaf83a1dbcac9a0aU,
  0xbc102af73d9cf7a7U, 0x3d614d2abca57d00U, 0xbcbc7fc8baaea1c6U, 0xbc33526c3d8a9ef1U,
  0x3d04d5cf3d5ea687U, 0x3c9ca7f53c8a5012U, 0x3d63a8f93cc5c694U, 0xbcf9b91b3d16aa88U,
  0xbd267b9ebc94d3c4U, 0xbcf48eda3d356d7aU, 0xbc6a9c2e3d975cf8U, 0xbce165343c1dc1ebU,
  0x3d8cfdbbbd11a4caU, 0x3c4331683c79b889U, 0xbd51be50bd052c45U, 0x3c7e10063cf4d3c1U,
  0x3cd4c6fdbc6d2e16U, 0x3c09562e3cdbfc64U, 0x3ca9d5313d673489U, 0xbd089ece3c180df1U,
  0x3d86c3a23d9e040cU, 0x3d591613bc6611c8U, 0xbc8fa0553d5d9149U, 0xbca74657bc1f59e3U,
  0x3c68fd8ebd1e2fcdU, 0x3cc4c7053b3a1c28U, 0x3cd51a2e3d8c79bfU, 0x3d0657873d0087e1U,
  0xbdad606e3d20c3daU, 0xbcea79a13abd27cdU, 0x3d03c3283d674248U, 0x3d5c33ea3c988ee8U,
  0x3cfb949b3c51901fU, 0xbca02b85bbc37c95U, 0x3c440a7fbc65d315U, 0xbd25c062bd2c0960U,
  0xbba8022bbd2d3f90U, 0x3d20d701bd58e402U, 0x3d59573cbcb366a4U, 0x3d206ac1bce67373U,
  0x3cd18983bd25cfc6U, 0x3d3cbcae3d325259U, 0xbc8f40c8bcdb8ef9U, 0x3d8033893cc75488U,
  0x391c02e4bd3b94c6U, 0xbd34e9303cc764a8U, 0xbd3d19593caff8e8U, 0xbc9bfe2bbcd41029U,
  0x3cbeccabbd20fd5bU, 0xbcd2ed88bd21e3ceU, 0x3a7b071c3cf37b66U, 0xbd4485d6bd5b1c91U,
  0xbc25ea77bd6248e9U, 0xbcab25e03d038a00U, 0xbc82b08ebc313df5U, 0x3c90aaa5bd12d54dU,
  0xbcb78e543ce02eeeU, 0x3d55bea23c141da6U, 0xbcdde32abcfdac6cU, 0xbc62c04fbc4d9c7aU,
  0xbd195bf53d1b14cdU, 0xbb09b6ef3d69cf2eU, 0x3accfc6dbd607b94U, 0x3b9c6ca6bbd2612aU,
  0xbcce6cf23cec5086U, 0xbcbecc443d1884b6U, 0x3bce7ca5bcfe5674U, 0x3d20fd76bcdfed5cU,
  0xbc7b5ddbbcf03b49U, 0x3c0ef2473cbda20aU, 0x3d0807bd3bbe5ba2U, 0xbc05b9d5bc128498U,
  0x3c0d68aebd439ee4U, 0xbce318353cedceb4U, 0x3baff4fdbc72ff9dU, 0xbc3be0573d4a23a2U,
  0xbd71a64bbd8ebaaaU, 0xbd2d269e3d72e04cU, 0xbd3bb77b3d5be611U, 0xbdb5e28fbd1a7f55U,
  0xbba964c93c0506c8U, 0x3c8517de3d13ca3bU, 0xbca3867d3c943ef2U, 0x3d73d19f3d2484f6U,
  0x3a7690ae3c5e23a4U, 0xbc764f93bd64b5faU, 0x3ce9b8fb3d6080f5U, 0x3d0058113d1f0141U,
  0x3d897b23bd0a3219U, 0x3d303d193c767187U, 0x3cc1589bbcdb9c8cU, 0xbc8412cb3ce48025U,
  0x3ce90b513d46c920U, 0x3c86bf6ab9c6d9ecU, 0xbbfa38eabd3408ecU, 0x3cbc1617bd19d541U,
  0x3dcf4a9d3d90bc37U, 0x3d987796bcab6c98U, 0xbd4dcfb5bcb9c656U, 0x3d33a3dc3d7a7759U,
  0x3cb411643d2d58d1U, 0x3d315505bd058a68U, 0x3c2840b6bd073457U, 0x3daa57d4bc183564U,
  0xbab7ef083c679b6eU, 0xbc9108ed3c797d94U, 0x3d02ceb6bd2d4129U, 0xbc2debde3d8cc51cU,
  0x3ad3d0c83da01bafU, 0x3d952c113b9be691U, 0xbc73e95fbd3a366dU, 0x3d4e69583d77014dU,
  0xbbffeb1c3d48f133U, 0xbbbd738c3d5fb934U, 0xbcbdecf7bd31a4d3U, 0x3d751b69bcc07bbcU,
  0x3d8de1abbd354e07U, 0xbcecbc5fbd3764a1U, 0x3bd070513d7ab8d2U, 0xbd703cb7bd046af0U,
  0xbd770a27bccde154U, 0xbc542a6d3cefd644U, 0x3d8b1fdb3d38b728U, 0x3a261be83cf170c1U,
  0x3cc5f46bbcc6664bU, 0x3b88df183d005cb9U, 0xbd56cd483d95729aU, 0x3abec7f33ca1b693U,
  0xbc6e23793d31dcb9U, 0x3d447c2cbc534c63U, 0x3d81a2063d2592dbU, 0x3d2861febd5d0ab8U,
  0xbd765346bd766217U, 0x3ceaff69bc38e47dU, 0xbd05f3f3bd003513U, 0xbd2e630ebcf9524dU,
  0xbd84f18a3b4a6f11U, 0xbcaff43e3c3dfd86U, 0x3d8a3a6fbbc0efb8U, 0xbcf2d4a7bc557dcfU,
  0x3d4ca30dbdb18a1aU, 0x3d7b54c73d5e40d0U, 0xbcafb08a3c2756a5U, 0x3d18c31b3b340a3cU,
  0x3d39e495bc481bd8U, 0x3d27bd59bd4866a5U, 0x3c5ae6563c9568ebU, 0xbcff986cbd0e95e5U,
  0x3d58c1e9bdc546bbU, 0x3d6ff1c43cf3f304U, 0xbcdd7fd33afd45c8U, 0x3d371c8d3d390a5bU,
  0x3d9155253d1ae784U, 0xbd4207a23d1445d9U, 0xbc97cf8d3ab0c464U, 0x3d202d5bbd31db68U,
  0xbd7eb2513d851242U, 0xbd2418cc3cac7f58U, 0x3c054dd5bcc18ac5U, 0xbdaf5864bd86dfa8U,
  0x3d18f677bdbec0fcU, 0xbc9ecf06bd87ef20U, 0x3bf7d850bdaa0a6fU, 0x3cfd7ef03cabe3b6U,
  0xbd8d7fa73d906cc3U, 0xbd6fe96239b4170fU, 0x3b82cd5b3be8c38aU, 0x3d12e171bd047ae5U,
  0xbdbe54e83d40d12cU, 0xbc8b33173d855ec5U, 0x3cd01aa5bcbd2854U, 0x3d5c9a27bc2a014fU,
  0xbdbf772fbd9599e6U, 0x3d4f7768bc448d1cU, 0x3d3eec743dacf282U, 0x3d3d5c15bc24b5a5U,
  0xbcdedd8f3d5b47d0U, 0x3da5e195bcffcc9dU, 0xbb51dffdbbb3f531U, 0x3d9f68d63cdf1ccaU,
  0x3c9eb1f6bc4b0222U, 0x3d63dbc03c1bd956U, 0xbc68b5b1bc4a1741U, 0x3c3e88f33d9dea26U,
  0xbcaef37e3d54b55fU, 0xbc79a3543cb2d128U, 0xbd37cc0e3d3b5a1aU, 0x3d8cd82a3c9fbc30U,
  0x3c8854d8bcee966fU, 0xbcb06451bbf53d64U, 0xbcaf05ed3d220e3fU, 0xbbfc071c3d09eb13U,
  0x3c0a9f8ebc8ff0c7U, 0x3d2152003ce08e47U, 0xbd467e43bc0eb15dU, 0xbd4e66773cc47d71U,
  0x3d27455fbd1a466dU, 0xbb95097e3b72c5f4U, 0xbcefa640bca87388U, 0xbd7676bf3d3ee827U,
  0xbcf0470abd8ab01bU, 0xbb8eb92f3cddfc90U, 0x3cb9788cbcbd3e51U, 0x3d2662683d040163U,
  0xbd8299913dac7300U, 0xbcfe7c003b06a929U, 0xbd3d19c1bc42668fU, 0xbd23f7fcbcaf9d75U,
  0x3cfcf380bae0c18eU, 0xbc874663bcbb81f8U, 0xbc4416fa3c4c5495U, 0xbc52d48ebd368c0dU,
  0xbd83620d3aad4a4aU, 0x3cc5fb0c3ce8044eU, 0x3d496fbd3cd9d3a8U, 0xbd105211bcd850e0U,
  0x3d17dd69bd101b09U, 0xbd0d2f563d386282U, 0xbd26896ebce1e945U, 0xbd48434cbd2bdf55U,
  0xbbde75253d39f992U, 0x3cc13ebb3d0bf806U, 0x3ccab8003d035ac9U, 0xbadb5474bbe28e09U,
  0xbd0caed9bd82bb73U, 0xbccc5e7e3cf69d17U, 0xbd0b56d73c2af602U, 0xbcd9bef23d00ead5U,
  0xbd55a9823d44a5c3U, 0x3c541447bca8b312U, 0x3d63fcfe3d0e49a5U, 0x3be408cabd1599b1U,
  0x3d0d7a8ebd8e7353U, 0xbd42d1dc3d0a503bU, 0xbd3a5e42bce442a2U, 0x3d145fbfbc758e38U,
  0xbca7fe523dbe891cU, 0xbd0ee11e3d2dabfcU, 0xbd7a90703c57558dU, 0x3bd81e09bce7aa69U,
  0x3d115e9a3c2ed947U, 0x3d109f22bd5da0a2U, 0x3d3206b93cc0140eU, 0xbcf3b9923d469c5dU,
  0x3ca5984b3d91feb9U, 0xbd0510a6bcada01bU, 0x3d53cc47bb4557baU, 0xbd032ca03c9a6bffU,
  0x3ce1c7823d0a4dc1U, 0xbd2c430f3d833765U, 0x3c6f45bf3d84a4a7U, 0xbce8a6d139ba7637U,
  0x3cce6f7e3a4b5003U, 0x3c4dc2403cda9017U, 0xbcf05dcd3d616f89U, 0xbce83625bcc141edU,
  0xb93521e43d2232c0U, 0xbca313d3bb815f2fU, 0xbd08f86b3d9b46fdU, 0x3d8bef343cca5222U,
  0x3bfe95193d109ba8U, 0x3bca632e3bd323b4U, 0x3d69bb8c3d0591fbU, 0xbd0917a23d7f54c5U,
  0x3d9ffcc63da3ac03U, 0xbccbd1023c8a603aU, 0xbc55f0cc3d80f934U, 0xbbe16da83c373d81U,
  0x3d0c1a6f3c1d6b4aU, 0xbd1ac1023cadff7fU, 0xbbe8230b3d587043U, 0xbd0883d0bbecbbb3U,
  0x3cee03f4bbf963adU, 0x3d3b6735bd0da767U, 0x3d45bc3abbe01c96U, 0xbd1544fe3d840b3aU,
  0xbc0f9cc23de374eeU, 0xbc8c5e2bbc9ed5b2U, 0x3d825c943d2553a9U, 0xbcb02018bd1020d2U,
  0xbd4834433d860b55U, 0x38bcd64ebbc04587U, 0x3b95a6fdbd224ca2U, 0xb6ae99e0bc244a09U,
  0xbcac07583d9afc3cU, 0xbcd615293d2c7d22U, 0x3c964877bd658b50U, 0xbc172eb0bd422439U,
  0x3d939cac3cb84530U, 0xbb89b9293c074e31U, 0xbc804fc8bce8dcc9U, 0xbd4b90273c1abf15U,
  0x3d09c6963bf77e39U, 0xbcd8b8383c17b511U, 0xbcc4313a3d09b2ffU, 0x3c83087bba391b5dU,
  0x3d6275d53cef44e4U, 0xbc4f0c44bd8b4c5aU, 0xbce8c0ff3cdbe03dU, 0x3d33bed63d7c8427U,
  0xbbb9f4cd3d1e4f70U, 0x3d2c0f0fbd63767fU, 0x3d51819a3d628de8U, 0xbd06a0723d63d424U,
  0x3c6a686a3d20a9beU, 0xbcfb8edebc953138U, 0xbce9dc51bbe0f48aU, 0xbc3e597b3c836604U,
  0xbc40b3a63d9b0bf7U, 0xbc9cf9ed3c01a14fU, 0x3c530b07bd00e488U, 0x3d9aed643ccc1663U,
  0xbda579f5bd4387c6U, 0xbd5b78ba3cc51b69U, 0xbba06118bce704b7U, 0xbcd3de93bc9b4091U,
  0x3d891c783d298b69U, 0x3d32ba8cbd2fa64bU, 0x3d7107683d0e2998U, 0xbcb462f43c8a32efU,
  0xbd94f28fbd431f1dU, 0xbd7366033d229b93U, 0xbac759103c9af336U, 0xbc7488ff3c9fba71U,
  0xbdcddaf6bd857f06U, 0xbd3e9f5fbd4b1b81U, 0x3b87f1e33be5392bU, 0x3cb371b6bd4d6949U,
  0x3c7cd28a3b78d5a2U, 0x3b2e38ee3cfd87acU, 0x3d09bfcbbd27c6efU, 0x3c8d4a55bcbf53aeU,
  0xbd01baad3c939484U, 0xbaef1c45bd048ffeU, 0xbd48c3723d359b19U, 0x3b89fe78bca22da1U,
  0xbd787e03bbdb676aU, 0x3d708e88bd0fe999U, 0x3d806eecbc111e4dU, 0x3d0ee3f4b9b9a930U,
  0xbda0a73abd861376U, 0x3ccde2b13d8ea0b9U, 0x3d64181dbccfbc7bU, 0x3b26f270bcf7d341U,
  0x3c0049c6bca843cbU, 0xba55f6c5bc90e26dU, 0xbc86e5453cbd797dU, 0x3d56e6753d25229dU,
  0xbdaa5feabd355981U, 0xbc0795293c3b2a24U, 0x3d86425e3c3f246bU, 0xbce03ad33d0d6e70U,
  0x3d3eaaa6bb475c50U, 0x3d82ed5cbcaf3836U, 0x3cf9b1dd3bf556c7U, 0x3cb3c5fcbb355f46U,
  0xba857dcabd70a05bU, 0x3d9276663bf837deU, 0xbc284a70bd4bea4bU, 0x3d22b70e3d2819d3U,
  0x3c8d6bf33d9dc91eU, 0x3d54a0d0bc05bf5aU, 0x3cb29b64bc504e82U, 0xbd08982ebcaa3174U,
  0x3dc1998cbd2707b5U, 0x3d8600eebcf4c00eU, 0x3d6721513d668a80U, 0xbd5434b33c45db46U,
  0x3d164580bb58757dU, 0xbcecac5fbcd43599U, 0x3d73d2fcbc20c60dU, 0x3d14fc30bd10b244U,
  0xbc5bcb253bf1a03cU, 0x3d13b0be3c26296fU, 0xbc1dc075bce5d093U, 0xbc992b603d52d7bdU,
  0x38be6ee13d65cc1bU, 0x3c3d352dbcc8987eU, 0xbb660701bd2dc347U, 0xbd402ab63cc85550U,
  0xbcc56db13d7460d5U, 0xbd5ce1363d48e8d7U, 0x3d7013efbd147e9aU, 0x3afdbc123c81ec8dU,
  0xbcdc78d6bca59539U, 0x3a57c7ecbc8777e7U, 0xbd357ed6bca84b7dU, 0xbc974206bb5ae4aaU,
  0x3d22877a3d1e2479U, 0xbd4d1682bb166f9aU, 0xbc92bb7e3cb068d2U, 0x3c3a0713bd0b3b3cU,
  0xbd8b6070bd2b9716U, 0xbda649f73d2d8db6U, 0xbdcbb4973d1901c4U, 0x3c9092c9bd49f78cU,
  0x3d41c0b3bd597bcaU, 0x3d152606bd3a7865U, 0x3ce57de8bce0e376U, 0xbcced15abbf0cfd3U,
  0xbccfc42cbd1b62e5U, 0x3c1645643d27d324U, 0xbc6bed1cbd2908c7U, 0xbcb5f3533d11bc6dU,
  0xbde23becbdbef038U, 0xbd15e6adbcf291c7U, 0xbccef4373cecf201U, 0xbcd715733d5283ebU,
  0xbc52062fbd6aa6c5U, 0x3d2914beb9ca9267U, 0xbce4cfcc3ce08ae7U, 0x3d4b26fbbcef4b95U,
  0xbd85b1b0bd935500U, 0xbd3b78b33d467412U, 0xbcc097b13bf17b29U, 0x3d78129cbcb038eaU,
  0xbc54efa43cc872bdU, 0xbba507dcbc4242e5U, 0x3bb499013d2eb61aU, 0x3a8dd696bd8b0439U,
  0x3b31e92ebd8b3bf9U, 0x3d1600c4bd58b97cU, 0x3cfcf5cdbd1810c8U, 0xbced47fa3b57a20eU,
  0xbdab341fbcaddc79U, 0xbd60bec5bd2b0140U, 0x3d370a83bc9cf5e3U, 0xba33685abd2d67c4U,
  0xbd624018bdf3a609U, 0xbd80a6d73d3153f3U, 0xbc4f7f3c3d05aeafU, 0xbcea0fbe3b1c4f69U,
  0x3d940d67bd3ac0d8U, 0x3da365173c19fe56U, 0x3cc09dbfbd2a261aU, 0x386d87a8bc1ea346U,
  0x3a938d8a39ef761dU, 0xbd6c4ee93be3d6a7U, 0xbbee6e01bca88e5fU, 0xbd4522be3cf216bcU,
  0xbd7976663da81373U, 0xbd560b5dbd0eabd2U, 0x3d034a913be5b5e7U, 0x3d8e0dfa3cd7f9e2U,
  0x3ce1007ebdb2af1eU, 0xbd11bfe9ba5127a0U, 0xbd2bdff13ce8077eU, 0x3cce4af43d17e30bU,
  0x3c27f95abd60479bU, 0xbd1d7de43cbefa0dU, 0x3d456dfb3cdb251cU, 0x3d72ee7b3d697c0eU,
  0xbd1b9fd53c75423aU, 0xbd1a6aa9bbac2aa7U, 0xbcfdb3363d8d96e9U, 0x3d7d76843d204702U,
  0x3c89ece5bce9bc3aU, 0x3ce96e513d284a80U, 0xbc38561bbd6701a2U, 0x3d7b2cffbd364d42U,
  0x3cb42d84bd1cbbb5U, 0x3d09e89b3d33dce8U, 0x3c973e063cee6cccU, 0xbb7d1b9bbd38312bU,
  0xbb1a6f4dbd67ea8eU, 0x3cd35829bc33490bU, 0xbd26dd78bd08e84eU, 0xbd2734febd45db78U,
  0x3d625453bc5196f2U, 0xbcb819bdbd5a08ceU, 0x3c8093e73be9842eU, 0xbc9b61153c6933dfU,
  0xbb046351bd300390U, 0xbdb52204bd1d2a97U, 0xbd99378f3c7ee508U, 0x3d053c4d3c927ad3U,
  0x3e213a92bdcf7889U, 0xbd6dea50bd41a6bdU, 0xbd5fa853bb943160U, 0x3d4afd7b3b952a81U,
  0xbbd4ef84bce346fbU, 0xbd4a7f20bc0e3b68U, 0xbcda3ad5bab7272bU, 0xbc3f39c5bcff229aU,
  0x3e031a513a9d097bU, 0xbd8425f6bd0f8b69U, 0x3cd1d93cbd4c34e1U, 0xbdc0da1bbd85a56fU,
  0xbc485a453c8dfb1aU, 0x3c909153bd2331bdU, 0x3d29cdd4bd2b432cU, 0x3bb4788c3d55cdb6U,
  0xbca63ab8bd3b74b8U, 0x3c07114bbcb8bbacU, 0x3c198d573d0f3143U, 0xbc913a643c385b0fU,
  0xbd8e68243c8c12f9U, 0xbd413577bd02d5a4U, 0xbc298cd33b842f88U, 0xbc2980133bd9e3e7U,
  0x3a19569fbcae9837U, 0x3d36fda6bc956bceU, 0x3cb01e96bb7b5e13U, 0x3d4f77223c386502U,
  0xbd8ea613bd4ac779U, 0xbd4a2bcb3c37bce7U, 0x3cae459dbcfa7afbU, 0x3c02f578bc4f8035U,
  0xbcb85d30b81fb3bcU, 0x3b55ed0dbd496b8cU, 0x3b831d73bd1c1a71U, 0xbd472a2bbcff3c6cU,
  0xbc41e9a2bb529b48U, 0x3d2dcc3abc311f47U, 0xbb8e9f8dbd639b60U, 0x3ccd68d83d0a9d74U,
  0xbb888291bd3a891dU, 0xbc353be7bd19a76cU, 0xbbd345273c03c034U, 0x3b0f16383cad2a13U,
  0x3c894500bd4d54aeU, 0x3d099a293d245b59U, 0xbd3b06463d0998c6U, 0x3da1b016bc76338eU,
  0xbd85ebc2bd494f44U, 0x3c4a1c6d3d5130b1U, 0xbd0d9bc83d4fa5f4U, 0xbd882952bd190fedU,
  0xbda8771bbca66f23U, 0xbc880201bb00b874U, 0x3d3579033c74099fU, 0x3d0952e03ccc35c2U,
